{
  "version": "1.0",
  "truncation": null,
  "padding": null,
  "added_tokens": [
    {
      "id": 0,
      "content": "[PAD]",
      "single_word": false,
      "lstrip": false,
      "rstrip": false,
      "normalized": false,
      "special": true
    },
    {
      "id": 1,
      "content": "[UNK]",
      "single_word": false,
      "lstrip": false,
      "rstrip": false,
      "normalized": false,
      "special": true
    },
    {
      "id": 2,
      "content": "[SOS]",
      "single_word": false,
      "lstrip": false,
      "rstrip": false,
      "normalized": false,
      "special": true
    },
    {
      "id": 3,
      "content": "[EOS]",
      "single_word": false,
      "lstrip": false,
      "rstrip": false,
      "normalized": false,
      "special": true
    }
  ],
  "normalizer": {
    "type": "Sequence",
    "normalizers": [
      {
        "type": "NFKC"
      },
      {
        "type": "Lowercase"
      }
    ]
  },
  "pre_tokenizer": {
    "type": "Whitespace"
  },
  "post_processor": null,
  "decoder": {
    "type": "BPEDecoder",
    "suffix": "</w>"
  },
  "model": {
    "type": "BPE",
    "dropout": null,
    "unk_token": "[UNK]",
    "continuing_subword_prefix": null,
    "end_of_word_suffix": null,
    "fuse_unk": false,
    "byte_fallback": false,
    "ignore_merges": false,
    "vocab": {
      "[PAD]": 0,
      "[UNK]": 1,
      "[SOS]": 2,
      "[EOS]": 3,
      "!": 4,
      "#": 5,
      "$": 6,
      "%": 7,
      "&": 8,
      "(": 9,
      ")": 10,
      "*": 11,
      "+": 12,
      ",": 13,
      "-": 14,
      ".": 15,
      "/": 16,
      "0": 17,
      "1": 18,
      "2": 19,
      "3": 20,
      "4": 21,
      "5": 22,
      "6": 23,
      "7": 24,
      "8": 25,
      "9": 26,
      ":": 27,
      ";": 28,
      "=": 29,
      "?": 30,
      "@": 31,
      "\\": 32,
      "_": 33,
      "`": 34,
      "a": 35,
      "b": 36,
      "c": 37,
      "d": 38,
      "e": 39,
      "f": 40,
      "g": 41,
      "h": 42,
      "i": 43,
      "j": 44,
      "k": 45,
      "l": 46,
      "m": 47,
      "n": 48,
      "o": 49,
      "p": 50,
      "q": 51,
      "r": 52,
      "s": 53,
      "t": 54,
      "u": 55,
      "v": 56,
      "w": 57,
      "x": 58,
      "y": 59,
      "z": 60,
      "{": 61,
      "}": 62,
      "~": 63,
      "": 64,
      "": 65,
      "¡": 66,
      "£": 67,
      "©": 68,
      "®": 69,
      "à": 70,
      "á": 71,
      "â": 72,
      "ã": 73,
      "ä": 74,
      "å": 75,
      "ç": 76,
      "è": 77,
      "é": 78,
      "ê": 79,
      "ë": 80,
      "ì": 81,
      "í": 82,
      "ï": 83,
      "ñ": 84,
      "ò": 85,
      "ó": 86,
      "ô": 87,
      "õ": 88,
      "ö": 89,
      "ø": 90,
      "ù": 91,
      "ú": 92,
      "ü": 93,
      "ý": 94,
      "ā": 95,
      "ă": 96,
      "ć": 97,
      "č": 98,
      "đ": 99,
      "ē": 100,
      "ĩ": 101,
      "ť": 102,
      "ũ": 103,
      "ơ": 104,
      "ư": 105,
      "̀": 106,
      "́": 107,
      "̣": 108,
      "ย": 109,
      "ร": 110,
      "อ": 111,
      "่": 112,
      "ạ": 113,
      "ả": 114,
      "ấ": 115,
      "ầ": 116,
      "ẩ": 117,
      "ẫ": 118,
      "ậ": 119,
      "ắ": 120,
      "ằ": 121,
      "ẳ": 122,
      "ẵ": 123,
      "ặ": 124,
      "ẹ": 125,
      "ẻ": 126,
      "ẽ": 127,
      "ế": 128,
      "ề": 129,
      "ể": 130,
      "ễ": 131,
      "ệ": 132,
      "ỉ": 133,
      "ị": 134,
      "ọ": 135,
      "ỏ": 136,
      "ố": 137,
      "ồ": 138,
      "ổ": 139,
      "ỗ": 140,
      "ộ": 141,
      "ớ": 142,
      "ờ": 143,
      "ở": 144,
      "ỡ": 145,
      "ợ": 146,
      "ụ": 147,
      "ủ": 148,
      "ứ": 149,
      "ừ": 150,
      "ử": 151,
      "ữ": 152,
      "ự": 153,
      "ỳ": 154,
      "ỵ": 155,
      "ỷ": 156,
      "ỹ": 157,
      "​": 158,
      "–": 159,
      "—": 160,
      "⁄": 161,
      "€": 162,
      "你": 163,
      "葱": 164,
      "送": 165,
      "": 166,
      "": 167,
      "ng": 168,
      "th": 169,
      "nh": 170,
      "ch": 171,
      "an": 172,
      "the": 173,
      "re": 174,
      "at": 175,
      "in": 176,
      "tr": 177,
      "ou": 178,
      "on": 179,
      "er": 180,
      "to": 181,
      "is": 182,
      "and": 183,
      "kh": 184,
      "os": 185,
      "en": 186,
      "al": 187,
      "và": 188,
      "ing": 189,
      "qu": 190,
      "ap": 191,
      "it": 192,
      "là": 193,
      "ôi": 194,
      "or": 195,
      "es": 196,
      "of": 197,
      "apos": 198,
      "tôi": 199,
      "ot": 200,
      "ar": 201,
      "ph": 202,
      "as": 203,
      "le": 204,
      "gi": 205,
      "ông": 206,
      "ột": 207,
      "ti": 208,
      "ed": 209,
      "một": 210,
      "có": 211,
      "we": 212,
      "that": 213,
      "chú": 214,
      "cá": 215,
      "ay": 216,
      "chúng": 217,
      "om": 218,
      "ên": 219,
      "you": 220,
      "wh": 221,
      "se": 222,
      "ta": 223,
      "iệ": 224,
      "ững": 225,
      "ời": 226,
      "những": 227,
      "ve": 228,
      "quot": 229,
      "be": 230,
      "ới": 231,
      "ow": 232,
      "củ": 233,
      "của": 234,
      "ly": 235,
      "st": 236,
      "li": 237,
      "ất": 238,
      "ạn": 239,
      "nó": 240,
      "ong": 241,
      "không": 242,
      "ra": 243,
      "nà": 244,
      "đó": 245,
      "ều": 246,
      "bạn": 247,
      "ượ": 248,
      "so": 249,
      "ha": 250,
      "như": 251,
      "ười": 252,
      "đi": 253,
      "ic": 254,
      "người": 255,
      "ac": 256,
      "he": 257,
      "iế": 258,
      "trong": 259,
      "me": 260,
      "ại": 261,
      "ld": 262,
      "this": 263,
      "id": 264,
      "ver": 265,
      "uy": 266,
      "ll": 267,
      "thể": 268,
      "các": 269,
      "họ": 270,
      "lo": 271,
      "ược": 272,
      "bu": 273,
      "này": 274,
      "cho": 275,
      "đã": 276,
      "for": 277,
      "ngh": 278,
      "ent": 279,
      "au": 280,
      "được": 281,
      "con": 282,
      "ang": 283,
      "do": 284,
      "ây": 285,
      "gh": 286,
      "ình": 287,
      "với": 288,
      "wi": 289,
      "ion": 290,
      "ke": 291,
      "ab": 292,
      "--": 293,
      "ấy": 294,
      "are": 295,
      "out": 296,
      "sự": 297,
      "ne": 298,
      "ho": 299,
      "ro": 300,
      "mà": 301,
      "làm": 302,
      "ần": 303,
      "am": 304,
      "pe": 305,
      "ải": 306,
      "ge": 307,
      "tu": 308,
      "de": 309,
      "go": 310,
      "they": 311,
      "was": 312,
      "cu": 313,
      "để": 314,
      "điều": 315,
      "di": 316,
      "ce": 317,
      "ằng": 318,
      "cả": 319,
      "ir": 320,
      "mu": 321,
      "về": 322,
      "ực": 323,
      "sẽ": 324,
      "ter": 325,
      "all": 326,
      "ác": 327,
      "khi": 328,
      "one": 329,
      "thế": 330,
      "ến": 331,
      "ome": 332,
      "fe": 333,
      "nhi": 334,
      "with": 335,
      "im": 336,
      "su": 337,
      "now": 338,
      "ally": 339,
      "ống": 340,
      "ân": 341,
      "ơn": 342,
      "anh": 343,
      "can": 344,
      "what": 345,
      "op": 346,
      "ật": 347,
      "sa": 348,
      "have": 349,
      "but": 350,
      "te": 351,
      "ri": 352,
      "ầu": 353,
      "wor": 354,
      "từ": 355,
      "mo": 356,
      "ướ": 357,
      "iết": 358,
      "our": 359,
      "em": 360,
      "ết": 361,
      "ành": 362,
      "ation": 363,
      "ad": 364,
      "un": 365,
      "nói": 366,
      "đây": 367,
      "nhưng": 368,
      "thing": 369,
      "nă": 370,
      "ght": 371,
      "ức": 372,
      "us": 373,
      "ma": 374,
      "đến": 375,
      "việ": 376,
      "il": 377,
      "ther": 378,
      "phải": 379,
      "ould": 380,
      "very": 381,
      "ính": 382,
      "vào": 383,
      "there": 384,
      "about": 385,
      "si": 386,
      "vì": 387,
      "com": 388,
      "my": 389,
      "ước": 390,
      "not": 391,
      "việc": 392,
      "fr": 393,
      "rằng": 394,
      "ườ": 395,
      "ối": 396,
      "gì": 397,
      "đang": 398,
      "độ": 399,
      "àn": 400,
      "ường": 401,
      "iện": 402,
      "iể": 403,
      "pro": 404,
      "ex": 405,
      "ant": 406,
      "lại": 407,
      "rất": 408,
      "per": 409,
      "ản": 410,
      "ận": 411,
      "cách": 412,
      "thấy": 413,
      "nghĩ": 414,
      "âu": 415,
      "ol": 416,
      "some": 417,
      "hơn": 418,
      "ok": 419,
      "oun": 420,
      "nhiều": 421,
      "if": 422,
      "00": 423,
      "thực": 424,
      "vi": 425,
      "ùng": 426,
      "tion": 427,
      "ươ": 428,
      "how": 429,
      "ài": 430,
      "đầu": 431,
      "ts": 432,
      "od": 433,
      "ương": 434,
      "ậy": 435,
      "chỉ": 436,
      "ốn": 437,
      "pl": 438,
      "cái": 439,
      "peop": 440,
      "like": 441,
      "học": 442,
      "people": 443,
      "công": 444,
      "ai": 445,
      "trên": 446,
      "khác": 447,
      "ạo": 448,
      "ổi": 449,
      "ọi": 450,
      "ate": 451,
      "ju": 452,
      "ếu": 453,
      "vậy": 454,
      "ess": 455,
      "ền": 456,
      "nào": 457,
      "from": 458,
      "ind": 459,
      "ye": 460,
      "chuy": 461,
      "bec": 462,
      "biết": 463,
      "no": 464,
      "man": 465,
      "art": 466,
      "ity": 467,
      "lu": 468,
      "res": 469,
      "năm": 470,
      "phá": 471,
      "ci": 472,
      "thu": 473,
      "iệu": 474,
      "àng": 475,
      "thứ": 476,
      "ao": 477,
      "way": 478,
      "ũng": 479,
      "ơi": 480,
      "nếu": 481,
      "thành": 482,
      "dụ": 483,
      "ộc": 484,
      "nhà": 485,
      "ink": 486,
      "ắt": 487,
      "just": 488,
      "these": 489,
      "up": 490,
      "when": 491,
      "số": 492,
      "cũng": 493,
      "ide": 494,
      "ag": 495,
      "ung": 496,
      "ause": 497,
      "áng": 498,
      "know": 499,
      "iến": 500,
      "ích": 501,
      "kho": 502,
      "them": 503,
      "ul": 504,
      "by": 505,
      "quan": 506,
      "bị": 507,
      "ers": 508,
      "because": 509,
      "nên": 510,
      "ăn": 511,
      "who": 512,
      "ập": 513,
      "co": 514,
      "muốn": 515,
      "ồi": 516,
      "ấn": 517,
      "think": 518,
      "úc": 519,
      "ởi": 520,
      "mình": 521,
      "chính": 522,
      "ig": 523,
      "tại": 524,
      "ct": 525,
      "ữa": 526,
      "ki": 527,
      "ound": 528,
      "nhất": 529,
      "get": 530,
      "more": 531,
      "ars": 532,
      "whi": 533,
      "tạo": 534,
      "động": 535,
      "ren": 536,
      "giờ": 537,
      "giới": 538,
      "ưở": 539,
      "ưởng": 540,
      "tin": 541,
      "ặt": 542,
      "your": 543,
      "ện": 544,
      "ái": 545,
      "chi": 546,
      "sh": 547,
      "ine": 548,
      "ble": 549,
      "other": 550,
      "end": 551,
      "án": 552,
      "mọi": 553,
      "ment": 554,
      "work": 555,
      "whe": 556,
      "see": 557,
      "hiện": 558,
      "bởi": 559,
      "ốt": 560,
      "pu": 561,
      "going": 562,
      "had": 563,
      "tất": 564,
      "mi": 565,
      "lớ": 566,
      "hình": 567,
      "òn": 568,
      "tiế": 569,
      "ày": 570,
      "ắc": 571,
      "fo": 572,
      "êu": 573,
      "ốc": 574,
      "ưa": 575,
      "gr": 576,
      "cảm": 577,
      "ỏi": 578,
      "would": 579,
      "than": 580,
      "sau": 581,
      "sp": 582,
      "sống": 583,
      "hay": 584,
      "red": 585,
      "cuộc": 586,
      "ven": 587,
      "nhận": 588,
      "âm": 589,
      "their": 590,
      "look": 591,
      "which": 592,
      "quy": 593,
      "ose": 594,
      "ượng": 595,
      "ứng": 596,
      "ìn": 597,
      "thật": 598,
      "cần": 599,
      "tự": 600,
      "were": 601,
      "ard": 602,
      "ty": 603,
      "còn": 604,
      "here": 605,
      "thì": 606,
      "iểu": 607,
      "really": 608,
      "theo": 609,
      "ặc": 610,
      "want": 611,
      "day": 612,
      "ost": 613,
      "cre": 614,
      "el": 615,
      "pr": 616,
      "đị": 617,
      "ple": 618,
      "world": 619,
      "bo": 620,
      "ội": 621,
      "đề": 622,
      "ous": 623,
      "then": 624,
      "ôn": 625,
      "tor": 626,
      "new": 627,
      "đồ": 628,
      "ọng": 629,
      "câu": 630,
      "nhìn": 631,
      "ans": 632,
      "òng": 633,
      "bắt": 634,
      "don": 635,
      "app": 636,
      "bằng": 637,
      "ack": 638,
      "tới": 639,
      "der": 640,
      "where": 641,
      "every": 642,
      "time": 643,
      "cùng": 644,
      "est": 645,
      "ẫn": 646,
      "lớn": 647,
      "bản": 648,
      "giá": 649,
      "hu": 650,
      "cal": 651,
      "ngày": 652,
      "cứ": 653,
      "actu": 654,
      "tế": 655,
      "sao": 656,
      "thời": 657,
      "own": 658,
      "dụng": 659,
      "bộ": 660,
      "lên": 661,
      "chuyện": 662,
      "qua": 663,
      "ies": 664,
      "ain": 665,
      "cơ": 666,
      "nhân": 667,
      "ảng": 668,
      "trước": 669,
      "trở": 670,
      "king": 671,
      "has": 672,
      "ough": 673,
      "say": 674,
      "sinh": 675,
      "po": 676,
      "ort": 677,
      "led": 678,
      "iệm": 679,
      "actually": 680,
      "ace": 681,
      "any": 682,
      "ast": 683,
      "ỗi": 684,
      "ist": 685,
      "phần": 686,
      "ffe": 687,
      "tw": 688,
      "nước": 689,
      "ánh": 690,
      "sử": 691,
      "năng": 692,
      "phát": 693,
      "ục": 694,
      "ìm": 695,
      "ảnh": 696,
      "vấn": 697,
      "could": 698,
      "ạt": 699,
      "toàn": 700,
      "xu": 701,
      "thay": 702,
      "she": 703,
      "into": 704,
      "má": 705,
      "đổi": 706,
      "will": 707,
      "iên": 708,
      "gia": 709,
      "nơi": 710,
      "thông": 711,
      "dự": 712,
      "ence": 713,
      "ảo": 714,
      "ck": 715,
      "did": 716,
      "ves": 717,
      "tal": 718,
      "ur": 719,
      "ách": 720,
      "iệt": 721,
      "tìm": 722,
      "mới": 723,
      "hã": 724,
      "years": 725,
      "nhau": 726,
      "hệ": 727,
      "trường": 728,
      "well": 729,
      "ree": 730,
      "định": 731,
      "cô": 732,
      "ển": 733,
      "dis": 734,
      "things": 735,
      "right": 736,
      "kết": 737,
      "nhiên": 738,
      "tính": 739,
      "tốt": 740,
      "age": 741,
      "mạ": 742,
      "tuy": 743,
      "tưởng": 744,
      "sel": 745,
      "lý": 746,
      "trình": 747,
      "iz": 748,
      "itt": 749,
      "try": 750,
      "ach": 751,
      "rồi": 752,
      "his": 753,
      "hàng": 754,
      "ấu": 755,
      "vật": 756,
      "ite": 757,
      "..": 758,
      "ăng": 759,
      "make": 760,
      "ấp": 761,
      "act": 762,
      "hi": 763,
      "happ": 764,
      "cl": 765,
      "cent": 766,
      "ảy": 767,
      "uc": 768,
      "iển": 769,
      "hỏi": 770,
      "most": 771,
      "ber": 772,
      "need": 773,
      "ive": 774,
      "liệu": 775,
      "máy": 776,
      "mặt": 777,
      "able": 778,
      "br": 779,
      "fir": 780,
      "ợp": 781,
      "over": 782,
      "hợp": 783,
      "ạc": 784,
      "tiếp": 785,
      "kinh": 786,
      "been": 787,
      "hãy": 788,
      "hội": 789,
      "two": 790,
      "hành": 791,
      "imp": 792,
      "sy": 793,
      "ving": 794,
      "ắn": 795,
      "hai": 796,
      "chiế": 797,
      "said": 798,
      "vị": 799,
      "back": 800,
      "thiết": 801,
      "gian": 802,
      "nữa": 803,
      "át": 804,
      "str": 805,
      "hoá": 806,
      "first": 807,
      "thức": 808,
      "ful": 809,
      "gen": 810,
      "xem": 811,
      "ame": 812,
      "des": 813,
      "ated": 814,
      "ia": 815,
      "bà": 816,
      "something": 817,
      "par": 818,
      "af": 819,
      "trung": 820,
      "trọng": 821,
      "gre": 822,
      "đồng": 823,
      "form": 824,
      "thích": 825,
      "ice": 826,
      "giải": 827,
      "life": 828,
      "those": 829,
      "ễn": 830,
      "ồn": 831,
      "start": 832,
      "ệnh": 833,
      "much": 834,
      "đối": 835,
      "ture": 836,
      "diffe": 837,
      "um": 838,
      "tim": 839,
      "ater": 840,
      "bất": 841,
      "differen": 842,
      "got": 843,
      "trẻ": 844,
      "la": 845,
      "vài": 846,
      "tic": 847,
      "lượng": 848,
      "thường": 849,
      "ting": 850,
      "may": 851,
      "inter": 852,
      "ắng": 853,
      "đo": 854,
      "gy": 855,
      "also": 856,
      "ted": 857,
      "giống": 858,
      "her": 859,
      "đều": 860,
      "lần": 861,
      "spe": 862,
      "sáng": 863,
      "quá": 864,
      "tiên": 865,
      "bao": 866,
      "loại": 867,
      "bi": 868,
      "lot": 869,
      "kind": 870,
      "tâm": 871,
      "let": 872,
      "hiểu": 873,
      "chang": 874,
      "bệnh": 875,
      "even": 876,
      "nay": 877,
      "bet": 878,
      "ộng": 879,
      "ass": 880,
      "cứu": 881,
      "pre": 882,
      "nghệ": 883,
      "ngo": 884,
      "thống": 885,
      "ittle": 886,
      "ep": 887,
      "stu": 888,
      "little": 889,
      "cr": 890,
      "điể": 891,
      "mar": 892,
      "ịch": 893,
      "10": 894,
      "thr": 895,
      "happen": 896,
      "viên": 897,
      "điểm": 898,
      "take": 899,
      "nghĩa": 900,
      "úng": 901,
      "ody": 902,
      "êm": 903,
      "ical": 904,
      "ệt": 905,
      "many": 906,
      "only": 907,
      "đại": 908,
      "show": 909,
      "ob": 910,
      "gọi": 911,
      "pos": 912,
      "000": 913,
      "car": 914,
      "son": 915,
      "tương": 916,
      "coun": 917,
      "under": 918,
      "giả": 919,
      "quốc": 920,
      "je": 921,
      "nhỏ": 922,
      "20": 923,
      "body": 924,
      "hoặc": 925,
      "hoàn": 926,
      "đưa": 927,
      "mỗi": 928,
      "lúc": 929,
      "why": 930,
      "tác": 931,
      "lear": 932,
      "đường": 933,
      "quả": 934,
      "good": 935,
      "nghiệm": 936,
      "vẫn": 937,
      "chiếc": 938,
      "cul": 939,
      "ish": 940,
      "tur": 941,
      "bây": 942,
      "nguy": 943,
      "its": 944,
      "bra": 945,
      "come": 946,
      "real": 947,
      "talk": 948,
      "fi": 949,
      "self": 950,
      "bên": 951,
      "mon": 952,
      "ni": 953,
      "dân": 954,
      "rest": 955,
      "thuật": 956,
      "ins": 957,
      "xảy": 958,
      "19": 959,
      "does": 960,
      "dùng": 961,
      "through": 962,
      "different": 963,
      "biệt": 964,
      "ning": 965,
      "stand": 966,
      "ure": 967,
      "tổ": 968,
      "ẳng": 969,
      "từng": 970,
      "đất": 971,
      "truy": 972,
      "nghe": 973,
      "ase": 974,
      "read": 975,
      "off": 976,
      "triển": 977,
      "put": 978,
      "chuyển": 979,
      "diễn": 980,
      "around": 981,
      "khoảng": 982,
      "ão": 983,
      "ẩn": 984,
      "ọn": 985,
      "iệp": 986,
      "down": 987,
      "et": 988,
      "tell": 989,
      "trị": 990,
      "tuyệt": 991,
      "use": 992,
      "cao": 993,
      "đúng": 994,
      "quyết": 995,
      "ba": 996,
      "tory": 997,
      "giáo": 998,
      "&#": 999,
      "illi": 1000,
      "úp": 1001,
      "being": 1002,
      "ms": 1003,
      "dạ": 1004,
      "ved": 1005,
      "phụ": 1006,
      "pres": 1007,
      "cầu": 1008,
      "ừng": 1009,
      "tri": 1010,
      "col": 1011,
      "khu": 1012,
      "chất": 1013,
      "kế": 1014,
      "human": 1015,
      "sto": 1016,
      "lực": 1017,
      "cess": 1018,
      "wr": 1019,
      "chủ": 1020,
      "ought": 1021,
      "liên": 1022,
      "ff": 1023,
      "ance": 1024,
      "khá": 1025,
      "lời": 1026,
      "bảo": 1027,
      "enti": 1028,
      "big": 1029,
      "ations": 1030,
      "cố": 1031,
      "als": 1032,
      "tiến": 1033,
      "illion": 1034,
      "áo": 1035,
      "tra": 1036,
      "tho": 1037,
      "giúp": 1038,
      "tình": 1039,
      "ép": 1040,
      "ten": 1041,
      "ợi": 1042,
      "ầm": 1043,
      "nghiên": 1044,
      "óng": 1045,
      "nữ": 1046,
      "ating": 1047,
      "ắp": 1048,
      "ition": 1049,
      "sur": 1050,
      "ăm": 1051,
      "tions": 1052,
      "phòng": 1053,
      "bl": 1054,
      "bài": 1055,
      "ngay": 1056,
      "chưa": 1057,
      "proble": 1058,
      "fore": 1059,
      "ứa": 1060,
      "ẩm": 1061,
      "út": 1062,
      "xe": 1063,
      "comp": 1064,
      "stem": 1065,
      "year": 1066,
      "bình": 1067,
      "hết": 1068,
      "lic": 1069,
      "inte": 1070,
      "mang": 1071,
      "phí": 1072,
      "same": 1073,
      "ưới": 1074,
      "đơn": 1075,
      "xuất": 1076,
      "phương": 1077,
      "điện": 1078,
      "ướng": 1079,
      "não": 1080,
      "phân": 1081,
      "ak": 1082,
      "tranh": 1083,
      "soci": 1084,
      "three": 1085,
      "tiếng": 1086,
      "truyền": 1087,
      "khó": 1088,
      "ces": 1089,
      "tập": 1090,
      "part": 1091,
      "tuổi": 1092,
      "long": 1093,
      "ary": 1094,
      "med": 1095,
      "sci": 1096,
      "thank": 1097,
      "tay": 1098,
      "ents": 1099,
      "kỳ": 1100,
      "đặt": 1101,
      "cuối": 1102,
      "ask": 1103,
      "ick": 1104,
      "ower": 1105,
      "gra": 1106,
      "min": 1107,
      "tiền": 1108,
      "ậu": 1109,
      "iểm": 1110,
      "khoa": 1111,
      "biến": 1112,
      "yêu": 1113,
      "tượng": 1114,
      "pháp": 1115,
      "tech": 1116,
      "chu": 1117,
      "child": 1118,
      "giữa": 1119,
      "sản": 1120,
      "ue": 1121,
      "ques": 1122,
      "gần": 1123,
      "ét": 1124,
      "sti": 1125,
      "khả": 1126,
      "find": 1127,
      "ates": 1128,
      "cor": 1129,
      "ít": 1130,
      "doing": 1131,
      "lấy": 1132,
      "bé": 1133,
      "chiến": 1134,
      "50": 1135,
      "ways": 1136,
      "thú": 1137,
      "cond": 1138,
      "ạnh": 1139,
      "less": 1140,
      "trả": 1141,
      "fin": 1142,
      "ặp": 1143,
      "exper": 1144,
      "wom": 1145,
      "bỏ": 1146,
      "after": 1147,
      "ev": 1148,
      "fa": 1149,
      "xã": 1150,
      "great": 1151,
      "net": 1152,
      "óc": 1153,
      "ign": 1154,
      "ild": 1155,
      "cer": 1156,
      "hoạt": 1157,
      "đáng": 1158,
      "thị": 1159,
      "build": 1160,
      "again": 1161,
      "called": 1162,
      "fu": 1163,
      "ửa": 1164,
      "bas": 1165,
      "system": 1166,
      "sách": 1167,
      "ser": 1168,
      "light": 1169,
      "xt": 1170,
      "cy": 1171,
      "mỹ": 1172,
      "chí": 1173,
      "hiệu": 1174,
      "kể": 1175,
      "sức": 1176,
      "today": 1177,
      "made": 1178,
      "phẩm": 1179,
      "percent": 1180,
      "gn": 1181,
      "lie": 1182,
      "đời": 1183,
      "thân": 1184,
      "ấm": 1185,
      "chơi": 1186,
      "mất": 1187,
      "minh": 1188,
      "bức": 1189,
      "mor": 1190,
      "should": 1191,
      "tain": 1192,
      "logy": 1193,
      "mat": 1194,
      "ste": 1195,
      "ngoài": 1196,
      "amer": 1197,
      "ọc": 1198,
      "phi": 1199,
      "vis": 1200,
      "đấy": 1201,
      "ban": 1202,
      "change": 1203,
      "men": 1204,
      "du": 1205,
      "ẫu": 1206,
      "loài": 1207,
      "cộng": 1208,
      "jo": 1209,
      "int": 1210,
      "tài": 1211,
      "mạnh": 1212,
      "import": 1213,
      "mô": 1214,
      "tên": 1215,
      "nghiệp": 1216,
      "person": 1217,
      "...": 1218,
      "khí": 1219,
      "ear": 1220,
      "pi": 1221,
      "sion": 1222,
      "lập": 1223,
      "dẫn": 1224,
      "óm": 1225,
      "turn": 1226,
      "kes": 1227,
      "tinh": 1228,
      "dec": 1229,
      "ever": 1230,
      "old": 1231,
      "ry": 1232,
      "vir": 1233,
      "arch": 1234,
      "tre": 1235,
      "ngu": 1236,
      "lec": 1237,
      "văn": 1238,
      "xây": 1239,
      "200": 1240,
      "sing": 1241,
      "ừa": 1242,
      "gan": 1243,
      "trí": 1244,
      "play": 1245,
      "luôn": 1246,
      "thử": 1247,
      "bit": 1248,
      "vô": 1249,
      "ậm": 1250,
      "les": 1251,
      "hel": 1252,
      "ps": 1253,
      "sm": 1254,
      "tive": 1255,
      "tiêu": 1256,
      "fact": 1257,
      "cụ": 1258,
      "dựng": 1259,
      "ds": 1260,
      "power": 1261,
      "ote": 1262,
      "chứng": 1263,
      "ví": 1264,
      "times": 1265,
      "cour": 1266,
      "ities": 1267,
      "mean": 1268,
      "imag": 1269,
      "brain": 1270,
      "mẹ": 1271,
      "hy": 1272,
      "scho": 1273,
      "tử": 1274,
      "feel": 1275,
      "nhạc": 1276,
      "didn": 1277,
      "last": 1278,
      "thought": 1279,
      "nguyên": 1280,
      "land": 1281,
      "bab": 1282,
      "important": 1283,
      "hướng": 1284,
      "bot": 1285,
      "phố": 1286,
      "ầy": 1287,
      "uyết": 1288,
      "viết": 1289,
      "kiến": 1290,
      "high": 1291,
      "trái": 1292,
      "đâu": 1293,
      "ào": 1294,
      "idea": 1295,
      "sin": 1296,
      "tư": 1297,
      "ically": 1298,
      "ons": 1299,
      "fun": 1300,
      "đặc": 1301,
      "chức": 1302,
      "eng": 1303,
      "quyền": 1304,
      "da": 1305,
      "ôm": 1306,
      "sen": 1307,
      "before": 1308,
      "started": 1309,
      "chọn": 1310,
      "school": 1311,
      "understand": 1312,
      "exam": 1313,
      "ise": 1314,
      "found": 1315,
      "suy": 1316,
      "vời": 1317,
      "ạm": 1318,
      "chế": 1319,
      "30": 1320,
      "him": 1321,
      "techno": 1322,
      "gu": 1323,
      "chết": 1324,
      "mạng": 1325,
      "ath": 1326,
      "nền": 1327,
      "đứa": 1328,
      "sha": 1329,
      "give": 1330,
      "giản": 1331,
      "đạo": 1332,
      "book": 1333,
      "vide": 1334,
      "went": 1335,
      "vụ": 1336,
      "hand": 1337,
      "thần": 1338,
      "sĩ": 1339,
      "cấp": 1340,
      "bào": 1341,
      "mun": 1342,
      "belie": 1343,
      "plan": 1344,
      "story": 1345,
      "đá": 1346,
      "side": 1347,
      "triệu": 1348,
      "interest": 1349,
      "màu": 1350,
      "tăng": 1351,
      "ids": 1352,
      "ters": 1353,
      "nam": 1354,
      "pp": 1355,
      "ạp": 1356,
      "iếm": 1357,
      "another": 1358,
      "lẽ": 1359,
      "never": 1360,
      "might": 1361,
      "ẹp": 1362,
      "ger": 1363,
      "dù": 1364,
      "lls": 1365,
      "bay": 1366,
      "xin": 1367,
      "alth": 1368,
      "design": 1369,
      "tháng": 1370,
      "fam": 1371,
      "ạch": 1372,
      "ys": 1373,
      "problem": 1374,
      "khỏi": 1375,
      "course": 1376,
      "dưới": 1377,
      "ềm": 1378,
      "cực": 1379,
      "pat": 1380,
      "đánh": 1381,
      "better": 1382,
      "bal": 1383,
      "still": 1384,
      "amp": 1385,
      "stud": 1386,
      "ago": 1387,
      "cap": 1388,
      "gặp": 1389,
      "help": 1390,
      "place": 1391,
      "each": 1392,
      "chẳng": 1393,
      "az": 1394,
      "ắm": 1395,
      "inv": 1396,
      "velo": 1397,
      "lar": 1398,
      "val": 1399,
      "vo": 1400,
      "ics": 1401,
      "ative": 1402,
      "love": 1403,
      "next": 1404,
      "uni": 1405,
      "mp": 1406,
      "chút": 1407,
      "indi": 1408,
      "trans": 1409,
      "vers": 1410,
      "xuống": 1411,
      "air": 1412,
      "nhóm": 1413,
      "hôm": 1414,
      "chia": 1415,
      "chắc": 1416,
      "vid": 1417,
      "rõ": 1418,
      "learn": 1419,
      "came": 1420,
      "dịch": 1421,
      "thêm": 1422,
      "commun": 1423,
      "call": 1424,
      "mở": 1425,
      "toge": 1426,
      "gắng": 1427,
      "oss": 1428,
      "together": 1429,
      "vel": 1430,
      "face": 1431,
      "na": 1432,
      "few": 1433,
      "ata": 1434,
      "phép": 1435,
      "ween": 1436,
      "âng": 1437,
      "tham": 1438,
      "ward": 1439,
      "quay": 1440,
      "ists": 1441,
      "dữ": 1442,
      "care": 1443,
      "water": 1444,
      "dr": 1445,
      "low": 1446,
      "quanh": 1447,
      "khiến": 1448,
      "xác": 1449,
      "vực": 1450,
      "develo": 1451,
      "trò": 1452,
      "used": 1453,
      "ness": 1454,
      "num": 1455,
      "four": 1456,
      "mis": 1457,
      "mức": 1458,
      "women": 1459,
      "comple": 1460,
      "ft": 1461,
      "million": 1462,
      "too": 1463,
      "ility": 1464,
      "thuyết": 1465,
      "ca": 1466,
      "đàn": 1467,
      "duy": 1468,
      "won": 1469,
      "nhanh": 1470,
      "mom": 1471,
      "đôi": 1472,
      "nguồn": 1473,
      "between": 1474,
      "dạng": 1475,
      "sim": 1476,
      "cảnh": 1477,
      "gây": 1478,
      "ica": 1479,
      "ồng": 1480,
      "question": 1481,
      "vọng": 1482,
      "mus": 1483,
      "cur": 1484,
      "nor": 1485,
      "vùng": 1486,
      "báo": 1487,
      "second": 1488,
      "develop": 1489,
      "ited": 1490,
      "cted": 1491,
      "châu": 1492,
      "live": 1493,
      "mal": 1494,
      "đẹp": 1495,
      "càng": 1496,
      "fri": 1497,
      "vu": 1498,
      "chị": 1499,
      "ily": 1500,
      "data": 1501,
      "lt": 1502,
      "gener": 1503,
      "mind": 1504,
      "xa": 1505,
      "thậm": 1506,
      "93": 1507,
      "dễ": 1508,
      "tục": 1509,
      "giác": 1510,
      "grow": 1511,
      "cây": 1512,
      "ction": 1513,
      "91": 1514,
      "ors": 1515,
      "trang": 1516,
      "phía": 1517,
      "đủ": 1518,
      "đoạn": 1519,
      "kì": 1520,
      "itu": 1521,
      "room": 1522,
      "sát": 1523,
      "vũ": 1524,
      "war": 1525,
      "nhớ": 1526,
      "biểu": 1527,
      "êng": 1528,
      "phim": 1529,
      "contr": 1530,
      "100": 1531,
      "wal": 1532,
      "pic": 1533,
      "comes": 1534,
      "ines": 1535,
      "nat": 1536,
      "point": 1537,
      "thương": 1538,
      "oney": 1539,
      "hưởng": 1540,
      "kiểm": 1541,
      "ưu": 1542,
      "formation": 1543,
      "maybe": 1544,
      "den": 1545,
      "home": 1546,
      "line": 1547,
      "ner": 1548,
      "children": 1549,
      "por": 1550,
      "example": 1551,
      "far": 1552,
      "incre": 1553,
      "econ": 1554,
      "ris": 1555,
      "vòng": 1556,
      "move": 1557,
      "sta": 1558,
      "head": 1559,
      "econom": 1560,
      "phản": 1561,
      "luận": 1562,
      "ject": 1563,
      "bre": 1564,
      "gg": 1565,
      "small": 1566,
      "dài": 1567,
      "rel": 1568,
      "cts": 1569,
      "technology": 1570,
      "ngữ": 1571,
      "ủng": 1572,
      "che": 1573,
      "done": 1574,
      "hồi": 1575,
      "looking": 1576,
      "trời": 1577,
      "yes": 1578,
      "grap": 1579,
      "vie": 1580,
      "doesn": 1581,
      "cep": 1582,
      "parti": 1583,
      "lợi": 1584,
      "đầy": 1585,
      "char": 1586,
      "cra": 1587,
      "dục": 1588,
      "bor": 1589,
      "cậu": 1590,
      "atch": 1591,
      "search": 1592,
      "wanted": 1593,
      "selves": 1594,
      "ments": 1595,
      "fac": 1596,
      "ạy": 1597,
      "sible": 1598,
      "chân": 1599,
      "kia": 1600,
      "thôi": 1601,
      "run": 1602,
      "bước": 1603,
      "giảm": 1604,
      "ip": 1605,
      "thuốc": 1606,
      "ah": 1607,
      "working": 1608,
      "ks": 1609,
      "video": 1610,
      "friend": 1611,
      "thư": 1612,
      "believe": 1613,
      "money": 1614,
      "tru": 1615,
      "always": 1616,
      "vừa": 1617,
      "ằm": 1618,
      "blo": 1619,
      "aren": 1620,
      "experi": 1621,
      "kiếm": 1622,
      "teach": 1623,
      "mục": 1624,
      "reas": 1625,
      "internet": 1626,
      "ones": 1627,
      "tích": 1628,
      "trăm": 1629,
      "giao": 1630,
      "ave": 1631,
      "đô": 1632,
      "nghi": 1633,
      "ized": 1634,
      "lai": 1635,
      "health": 1636,
      "ken": 1637,
      "hộ": 1638,
      "ựa": 1639,
      "ici": 1640,
      "ze": 1641,
      "cha": 1642,
      "toán": 1643,
      "using": 1644,
      "hard": 1645,
      "môi": 1646,
      "tỉ": 1647,
      "lim": 1648,
      "ưỡ": 1649,
      "away": 1650,
      "whole": 1651,
      "food": 1652,
      "five": 1653,
      "hạn": 1654,
      "lệ": 1655,
      "đình": 1656,
      "hầu": 1657,
      "compu": 1658,
      "ational": 1659,
      "guy": 1660,
      "set": 1661,
      "open": 1662,
      "information": 1663,
      "nu": 1664,
      "sort": 1665,
      "cou": 1666,
      "sâu": 1667,
      "ton": 1668,
      "địa": 1669,
      "country": 1670,
      "kids": 1671,
      "phục": 1672,
      "trải": 1673,
      "vâng": 1674,
      "mã": 1675,
      "ings": 1676,
      "organ": 1677,
      "tồn": 1678,
      "create": 1679,
      "thanh": 1680,
      "lòng": 1681,
      "giữ": 1682,
      "luật": 1683,
      "iếu": 1684,
      "ụp": 1685,
      "mem": 1686,
      "sai": 1687,
      "ress": 1688,
      "diện": 1689,
      "tạp": 1690,
      "lã": 1691,
      "lead": 1692,
      "space": 1693,
      "trying": 1694,
      "bố": 1695,
      "hal": 1696,
      "rộng": 1697,
      "thí": 1698,
      "del": 1699,
      "everything": 1700,
      "mắt": 1701,
      "doll": 1702,
      "web": 1703,
      "robot": 1704,
      "dành": 1705,
      "nối": 1706,
      "đoán": 1707,
      "đứng": 1708,
      "tối": 1709,
      "riêng": 1710,
      "pol": 1711,
      "sợ": 1712,
      "căn": 1713,
      "àu": 1714,
      "15": 1715,
      "áp": 1716,
      "thuộc": 1717,
      "kỹ": 1718,
      "logi": 1719,
      "eas": 1720,
      "pop": 1721,
      "exp": 1722,
      "đạt": 1723,
      "glo": 1724,
      "vẻ": 1725,
      "solu": 1726,
      "nổi": 1727,
      "lịch": 1728,
      "conne": 1729,
      "vệ": 1730,
      "ize": 1731,
      "dạy": 1732,
      "phủ": 1733,
      "pho": 1734,
      "sub": 1735,
      "har": 1736,
      "tes": 1737,
      "lang": 1738,
      "duc": 1739,
      "means": 1740,
      "top": 1741,
      "thúc": 1742,
      "ener": 1743,
      "thái": 1744,
      "mẫu": 1745,
      "anim": 1746,
      "oh": 1747,
      "pret": 1748,
      "cular": 1749,
      "llow": 1750,
      "process": 1751,
      "sẻ": 1752,
      "making": 1753,
      "xung": 1754,
      "tun": 1755,
      "bàn": 1756,
      "tries": 1757,
      "tern": 1758,
      "trông": 1759,
      "đọc": 1760,
      "chương": 1761,
      "social": 1762,
      "dri": 1763,
      "kỷ": 1764,
      "mer": 1765,
      "coming": 1766,
      "lớp": 1767,
      "become": 1768,
      "produc": 1769,
      "yếu": 1770,
      "thinking": 1771,
      "aw": 1772,
      "ặng": 1773,
      "number": 1774,
      "pon": 1775,
      "trụ": 1776,
      "took": 1777,
      "khắp": 1778,
      "vui": 1779,
      "best": 1780,
      "ital": 1781,
      "mối": 1782,
      "cle": 1783,
      "elec": 1784,
      "chạy": 1785,
      "cuốn": 1786,
      "quite": 1787,
      "ari": 1788,
      "12": 1789,
      "mù": 1790,
      "future": 1791,
      "khoẻ": 1792,
      "ngồi": 1793,
      "40": 1794,
      "tiết": 1795,
      "buổi": 1796,
      "thiên": 1797,
      "okay": 1798,
      "city": 1799,
      "sure": 1800,
      "grou": 1801,
      "gái": 1802,
      "ries": 1803,
      "view": 1804,
      "sư": 1805,
      "suốt": 1806,
      "ngôn": 1807,
      "says": 1808,
      "phút": 1809,
      "ina": 1810,
      "trợ": 1811,
      "ism": 1812,
      "ork": 1813,
      "probab": 1814,
      "biển": 1815,
      "inst": 1816,
      "kiểu": 1817,
      "bro": 1818,
      "enough": 1819,
      "bon": 1820,
      "ouse": 1821,
      "lives": 1822,
      "sho": 1823,
      "sắc": 1824,
      "ạng": 1825,
      "chắn": 1826,
      "left": 1827,
      "ượt": 1828,
      "add": 1829,
      "getting": 1830,
      "science": 1831,
      "energy": 1832,
      "ced": 1833,
      "pri": 1834,
      "afr": 1835,
      "chung": 1836,
      "pass": 1837,
      "ké": 1838,
      "viện": 1839,
      "while": 1840,
      "kiện": 1841,
      "trúc": 1842,
      "doanh": 1843,
      "wee": 1844,
      "gover": 1845,
      "month": 1846,
      "leg": 1847,
      "hoa": 1848,
      "đông": 1849,
      "ready": 1850,
      "half": 1851,
      "mua": 1852,
      "wa": 1853,
      "educ": 1854,
      "cus": 1855,
      "prote": 1856,
      "research": 1857,
      "vận": 1858,
      "allow": 1859,
      "und": 1860,
      "sign": 1861,
      "18": 1862,
      "sở": 1863,
      "without": 1864,
      "beg": 1865,
      "pie": 1866,
      "beau": 1867,
      "xét": 1868,
      "iting": 1869,
      "cửa": 1870,
      "york": 1871,
      "case": 1872,
      "tuần": 1873,
      "khám": 1874,
      "sound": 1875,
      "cánh": 1876,
      "keep": 1877,
      "siness": 1878,
      "business": 1879,
      "tely": 1880,
      "prof": 1881,
      "speci": 1882,
      "list": 1883,
      "probably": 1884,
      "èo": 1885,
      "ngạc": 1886,
      "ican": 1887,
      "job": 1888,
      "sive": 1889,
      "bán": 1890,
      "dra": 1891,
      "ight": 1892,
      "qui": 1893,
      "answ": 1894,
      "sense": 1895,
      "photo": 1896,
      "moment": 1897,
      "graph": 1898,
      "lâu": 1899,
      "xúc": 1900,
      "nhiệm": 1901,
      "govern": 1902,
      "interesting": 1903,
      "rl": 1904,
      "ket": 1905,
      "mid": 1906,
      "ràng": 1907,
      "thoại": 1908,
      "minu": 1909,
      "cri": 1910,
      "bur": 1911,
      "makes": 1912,
      "hoà": 1913,
      "happened": 1914,
      "countries": 1915,
      "hiểm": 1916,
      "đa": 1917,
      "ngôi": 1918,
      "issu": 1919,
      "talking": 1920,
      "global": 1921,
      "mặc": 1922,
      "earth": 1923,
      "dollars": 1924,
      "cấu": 1925,
      "lan": 1926,
      "ross": 1927,
      "imagine": 1928,
      "young": 1929,
      "kích": 1930,
      "inste": 1931,
      "envir": 1932,
      "pretty": 1933,
      "environ": 1934,
      "mother": 1935,
      "băng": 1936,
      "hour": 1937,
      "áu": 1938,
      "cen": 1939,
      "thi": 1940,
      "socie": 1941,
      "bar": 1942,
      "yet": 1943,
      "respon": 1944,
      "fl": 1945,
      "chụp": 1946,
      "told": 1947,
      "quý": 1948,
      "bác": 1949,
      "amaz": 1950,
      "chuyên": 1951,
      "billion": 1952,
      "seem": 1953,
      "cung": 1954,
      "control": 1955,
      "phức": 1956,
      "ưỡng": 1957,
      "ality": 1958,
      "nằm": 1959,
      "bóng": 1960,
      "kẻ": 1961,
      "reason": 1962,
      "ug": 1963,
      "ám": 1964,
      "til": 1965,
      "fil": 1966,
      "nhập": 1967,
      "experience": 1968,
      "struc": 1969,
      "mas": 1970,
      "mic": 1971,
      "ĩnh": 1972,
      "such": 1973,
      "ctor": 1974,
      "hope": 1975,
      "og": 1976,
      "pub": 1977,
      "ously": 1978,
      "polit": 1979,
      "cells": 1980,
      "building": 1981,
      "else": 1982,
      "simple": 1983,
      "langu": 1984,
      "tan": 1985,
      "saw": 1986,
      "ding": 1987,
      "độc": 1988,
      "works": 1989,
      "girl": 1990,
      "verse": 1991,
      "ngành": 1992,
      "across": 1993,
      "cạnh": 1994,
      "hạnh": 1995,
      "phys": 1996,
      "chứ": 1997,
      "spec": 1998,
      "words": 1999,
      "trưởng": 2000,
      "once": 2001,
      "quen": 2002,
      "living": 2003,
      "hữ": 2004,
      "ảm": 2005,
      "chỗ": 2006,
      "inside": 2007,
      "hữu": 2008,
      "ory": 2009,
      "watch": 2010,
      "khủng": 2011,
      "clu": 2012,
      "olu": 2013,
      "ately": 2014,
      "thập": 2015,
      "ices": 2016,
      "stuff": 2017,
      "ail": 2018,
      "din": 2019,
      "ef": 2020,
      "ual": 2021,
      "model": 2022,
      "60": 2023,
      "ếp": 2024,
      "plac": 2025,
      "dung": 2026,
      "van": 2027,
      "đức": 2028,
      "ions": 2029,
      "ird": 2030,
      "asked": 2031,
      "hear": 2032,
      "certain": 2033,
      "bring": 2034,
      "family": 2035,
      "vẽ": 2036,
      "aps": 2037,
      "project": 2038,
      "six": 2039,
      "bad": 2040,
      "fig": 2041,
      "mach": 2042,
      "member": 2043,
      "electr": 2044,
      "anything": 2045,
      "present": 2046,
      "later": 2047,
      "popul": 2048,
      "xanh": 2049,
      "tấm": 2050,
      "ash": 2051,
      "ghi": 2052,
      "ẵn": 2053,
      "ru": 2054,
      "public": 2055,
      "ial": 2056,
      "tổng": 2057,
      "phúc": 2058,
      "chuẩn": 2059,
      "ill": 2060,
      "ỏng": 2061,
      "fic": 2062,
      "tệ": 2063,
      "thiếu": 2064,
      "environment": 2065,
      "lắng": 2066,
      "tức": 2067,
      "mul": 2068,
      "suc": 2069,
      "pain": 2070,
      "hoạ": 2071,
      "goes": 2072,
      "sẵn": 2073,
      "ẩy": 2074,
      "happens": 2075,
      "chịu": 2076,
      "alle": 2077,
      "having": 2078,
      "ửi": 2079,
      "mong": 2080,
      "sắp": 2081,
      "istic": 2082,
      "colle": 2083,
      "wrong": 2084,
      "hề": 2085,
      "days": 2086,
      "80": 2087,
      "tái": 2088,
      "iter": 2089,
      "law": 2090,
      "night": 2091,
      "ben": 2092,
      "icul": 2093,
      "music": 2094,
      "sk": 2095,
      "phạm": 2096,
      "niệm": 2097,
      "tây": 2098,
      "level": 2099,
      "seen": 2100,
      "wonder": 2101,
      "particular": 2102,
      "hơi": 2103,
      "pris": 2104,
      "đau": 2105,
      "ộn": 2106,
      "nhiêu": 2107,
      "supp": 2108,
      "oper": 2109,
      "single": 2110,
      "sw": 2111,
      "chống": 2112,
      "within": 2113,
      "khăn": 2114,
      "someone": 2115,
      "ants": 2116,
      "dựa": 2117,
      "úi": 2118,
      "table": 2119,
      "tures": 2120,
      "effe": 2121,
      "lab": 2122,
      "trai": 2123,
      "often": 2124,
      "problems": 2125,
      "thous": 2126,
      "states": 2127,
      "eld": 2128,
      "ón": 2129,
      "thousand": 2130,
      "ying": 2131,
      "sol": 2132,
      "whether": 2133,
      "nothing": 2134,
      "lạ": 2135,
      "computer": 2136,
      "lạc": 2137,
      "game": 2138,
      "thất": 2139,
      "fron": 2140,
      "cải": 2141,
      "toà": 2142,
      "expl": 2143,
      "walk": 2144,
      "word": 2145,
      "đóng": 2146,
      "dies": 2147,
      "bánh": 2148,
      "begin": 2149,
      "lựa": 2150,
      "đội": 2151,
      "spend": 2152,
      "xử": 2153,
      "nội": 2154,
      "sou": 2155,
      "cổ": 2156,
      "đu": 2157,
      "istan": 2158,
      "answer": 2159,
      "demo": 2160,
      "cell": 2161,
      "cks": 2162,
      "ream": 2163,
      "ability": 2164,
      "myself": 2165,
      "looked": 2166,
      "everybody": 2167,
      "basically": 2168,
      "trực": 2169,
      "dle": 2170,
      "nhu": 2171,
      "saying": 2172,
      "hậu": 2173,
      "mil": 2174,
      "que": 2175,
      "hold": 2176,
      "mater": 2177,
      "san": 2178,
      "heart": 2179,
      "uyên": 2180,
      "gửi": 2181,
      "tầm": 2182,
      "both": 2183,
      "remember": 2184,
      "lli": 2185,
      "ideas": 2186,
      "picture": 2187,
      "tỷ": 2188,
      "house": 2189,
      "vượt": 2190,
      "xo": 2191,
      "đột": 2192,
      "khổ": 2193,
      "serv": 2194,
      "bed": 2195,
      "vity": 2196,
      "class": 2197,
      "true": 2198,
      "dần": 2199,
      "language": 2200,
      "hor": 2201,
      "hạt": 2202,
      "mật": 2203,
      "ens": 2204,
      "almost": 2205,
      "star": 2206,
      "11": 2207,
      "khắc": 2208,
      "decid": 2209,
      "itive": 2210,
      "order": 2211,
      "ural": 2212,
      "community": 2213,
      "dương": 2214,
      "xấu": 2215,
      "chăm": 2216,
      "possible": 2217,
      "pati": 2218,
      "dar": 2219,
      "danh": 2220,
      "dev": 2221,
      "exact": 2222,
      "ilt": 2223,
      "dam": 2224,
      "ox": 2225,
      "free": 2226,
      "national": 2227,
      "bio": 2228,
      "sang": 2229,
      "ưng": 2230,
      "ering": 2231,
      "ngoại": 2232,
      "matter": 2233,
      "gets": 2234,
      "mit": 2235,
      "thiện": 2236,
      "produ": 2237,
      "niềm": 2238,
      "hứng": 2239,
      "state": 2240,
      "kính": 2241,
      "phone": 2242,
      "dep": 2243,
      "africa": 2244,
      "nhiệt": 2245,
      "av": 2246,
      "25": 2247,
      "eu": 2248,
      "disco": 2249,
      "dầu": 2250,
      "dire": 2251,
      "lưu": 2252,
      "ident": 2253,
      "ground": 2254,
      "uring": 2255,
      "individ": 2256,
      "aper": 2257,
      "gram": 2258,
      "chiều": 2259,
      "amazing": 2260,
      "tí": 2261,
      "tiful": 2262,
      "lãnh": 2263,
      "trạng": 2264,
      "conf": 2265,
      "pect": 2266,
      "oc": 2267,
      "history": 2268,
      "olution": 2269,
      "challe": 2270,
      "built": 2271,
      "group": 2272,
      "beautiful": 2273,
      "pay": 2274,
      "incredi": 2275,
      "challeng": 2276,
      "dan": 2277,
      "mes": 2278,
      "tội": 2279,
      "entire": 2280,
      "key": 2281,
      "nỗi": 2282,
      "ngược": 2283,
      "nạn": 2284,
      "heard": 2285,
      "engine": 2286,
      "sometimes": 2287,
      "train": 2288,
      "nghèo": 2289,
      "contin": 2290,
      "dấu": 2291,
      "already": 2292,
      "ific": 2293,
      "70": 2294,
      "thủ": 2295,
      "bly": 2296,
      "đấu": 2297,
      "united": 2298,
      "lau": 2299,
      "nhiễ": 2300,
      "ling": 2301,
      "sun": 2302,
      "cận": 2303,
      "looks": 2304,
      "90": 2305,
      "chữa": 2306,
      "lling": 2307,
      "government": 2308,
      "fre": 2309,
      "hund": 2310,
      "ship": 2311,
      "hundred": 2312,
      "ồm": 2313,
      "thách": 2314,
      "tom": 2315,
      "until": 2316,
      "stories": 2317,
      "decided": 2318,
      "hát": 2319,
      "goog": 2320,
      "instead": 2321,
      "piece": 2322,
      "middle": 2323,
      "taking": 2324,
      "education": 2325,
      "experim": 2326,
      "share": 2327,
      "test": 2328,
      "large": 2329,
      "bers": 2330,
      "đẩy": 2331,
      "couple": 2332,
      "tool": 2333,
      "khách": 2334,
      "bang": 2335,
      "chữ": 2336,
      "success": 2337,
      "resu": 2338,
      "since": 2339,
      "tro": 2340,
      "fer": 2341,
      "audi": 2342,
      "rich": 2343,
      "father": 2344,
      "kéo": 2345,
      "main": 2346,
      "follow": 2347,
      "ngủ": 2348,
      "đen": 2349,
      "society": 2350,
      "clear": 2351,
      "step": 2352,
      "dro": 2353,
      "tố": 2354,
      "quân": 2355,
      "met": 2356,
      "months": 2357,
      "appro": 2358,
      "wasn": 2359,
      "stru": 2360,
      "yeah": 2361,
      "woman": 2362,
      "tắc": 2363,
      "nhờ": 2364,
      "quản": 2365,
      "jects": 2366,
      "ãi": 2367,
      "everyone": 2368,
      "giấy": 2369,
      "nature": 2370,
      "friends": 2371,
      "nuôi": 2372,
      "ming": 2373,
      "sor": 2374,
      "inno": 2375,
      "ford": 2376,
      "google": 2377,
      "nửa": 2378,
      "pot": 2379,
      "equ": 2380,
      "stree": 2381,
      "huge": 2382,
      "mark": 2383,
      "paren": 2384,
      "though": 2385,
      "minutes": 2386,
      "action": 2387,
      "diff": 2388,
      "sus": 2389,
      "bại": 2390,
      "somebody": 2391,
      "planet": 2392,
      "universe": 2393,
      "name": 2394,
      "tiện": 2395,
      "became": 2396,
      "front": 2397,
      "ati": 2398,
      "ator": 2399,
      "isn": 2400,
      "cancer": 2401,
      "speak": 2402,
      "lí": 2403,
      "soát": 2404,
      "beha": 2405,
      "cử": 2406,
      "lĩnh": 2407,
      "neur": 2408,
      "tốc": 2409,
      "ush": 2410,
      "complex": 2411,
      "exactly": 2412,
      "fra": 2413,
      "stop": 2414,
      "lỗi": 2415,
      "bắc": 2416,
      "flu": 2417,
      "khối": 2418,
      "quick": 2419,
      "indus": 2420,
      "takes": 2421,
      "team": 2422,
      "learned": 2423,
      "mắc": 2424,
      "hoạch": 2425,
      "news": 2426,
      "green": 2427,
      "gồm": 2428,
      "bốn": 2429,
      "ses": 2430,
      "joh": 2431,
      "univers": 2432,
      "mơ": 2433,
      "wind": 2434,
      "đừng": 2435,
      "god": 2436,
      "themselves": 2437,
      "grand": 2438,
      "created": 2439,
      "ỉnh": 2440,
      "china": 2441,
      "dây": 2442,
      "wo": 2443,
      "ẩu": 2444,
      "reg": 2445,
      "nhiễm": 2446,
      "cắt": 2447,
      "gl": 2448,
      "vision": 2449,
      "behavi": 2450,
      "lies": 2451,
      "listen": 2452,
      "non": 2453,
      "simp": 2454,
      "tàu": 2455,
      "win": 2456,
      "khiển": 2457,
      "ian": 2458,
      "past": 2459,
      "sóc": 2460,
      "tả": 2461,
      "completely": 2462,
      "dòng": 2463,
      "gó": 2464,
      "mê": 2465,
      "giết": 2466,
      "black": 2467,
      "jor": 2468,
      "õi": 2469,
      "dig": 2470,
      "fly": 2471,
      "đêm": 2472,
      "ats": 2473,
      "thẳng": 2474,
      "tai": 2475,
      "study": 2476,
      "places": 2477,
      "cười": 2478,
      "hại": 2479,
      "phong": 2480,
      "cau": 2481,
      "close": 2482,
      "pt": 2483,
      "american": 2484,
      "bir": 2485,
      "lưới": 2486,
      "questions": 2487,
      "appe": 2488,
      "others": 2489,
      "happening": 2490,
      "bày": 2491,
      "pra": 2492,
      "song": 2493,
      "third": 2494,
      "hours": 2495,
      "gene": 2496,
      "bầu": 2497,
      "knew": 2498,
      "đích": 2499,
      "khán": 2500,
      "phóng": 2501,
      "chiếu": 2502,
      "cập": 2503,
      "xếp": 2504,
      "chúa": 2505,
      "against": 2506,
      "bility": 2507,
      "ghan": 2508,
      "ny": 2509,
      "fully": 2510,
      "hỗ": 2511,
      "lái": 2512,
      "thấp": 2513,
      "must": 2514,
      "shows": 2515,
      "niên": 2516,
      "nhật": 2517,
      "ization": 2518,
      "nông": 2519,
      "khai": 2520,
      "điển": 2521,
      "typ": 2522,
      "john": 2523,
      "cư": 2524,
      "ges": 2525,
      "prin": 2526,
      "camer": 2527,
      "giai": 2528,
      "rather": 2529,
      "acti": 2530,
      "tle": 2531,
      "ngắn": 2532,
      "cam": 2533,
      "ngờ": 2534,
      "gấp": 2535,
      "rối": 2536,
      "đổ": 2537,
      "fran": 2538,
      "kinds": 2539,
      "bí": 2540,
      "itself": 2541,
      "students": 2542,
      "gốc": 2543,
      "sàng": 2544,
      "ames": 2545,
      "pur": 2546,
      "dàng": 2547,
      "chấp": 2548,
      "field": 2549,
      "company": 2550,
      "focus": 2551,
      "ease": 2552,
      "oppor": 2553,
      "difference": 2554,
      "ential": 2555,
      "cli": 2556,
      "row": 2557,
      "trừ": 2558,
      "ourselves": 2559,
      "emp": 2560,
      "opportun": 2561,
      "vai": 2562,
      "ặn": 2563,
      "turns": 2564,
      "jour": 2565,
      "tận": 2566,
      "ngân": 2567,
      "coll": 2568,
      "cept": 2569,
      "innov": 2570,
      "blu": 2571,
      "sân": 2572,
      "itting": 2573,
      "full": 2574,
      "đem": 2575,
      "giây": 2576,
      "seven": 2577,
      "bri": 2578,
      "cin": 2579,
      "đợi": 2580,
      "chim": 2581,
      "trách": 2582,
      "viol": 2583,
      "worked": 2584,
      "scient": 2585,
      "ctive": 2586,
      "hồ": 2587,
      "chuyến": 2588,
      "shap": 2589,
      "euro": 2590,
      "buy": 2591,
      "bạo": 2592,
      "tend": 2593,
      "stat": 2594,
      "đỡ": 2595,
      "cogn": 2596,
      "cas": 2597,
      "dna": 2598,
      "kỉ": 2599,
      "tôn": 2600,
      "cám": 2601,
      "fall": 2602,
      "chan": 2603,
      "log": 2604,
      "explain": 2605,
      "lắm": 2606,
      "scal": 2607,
      "deep": 2608,
      "dom": 2609,
      "xi": 2610,
      "meas": 2611,
      "gắn": 2612,
      "thousands": 2613,
      "astic": 2614,
      "impro": 2615,
      "siêu": 2616,
      "india": 2617,
      "drug": 2618,
      "clim": 2619,
      "gave": 2620,
      "dio": 2621,
      "ury": 2622,
      "cáo": 2623,
      "nghị": 2624,
      "cut": 2625,
      "ples": 2626,
      "cir": 2627,
      "cân": 2628,
      "ele": 2629,
      "phẫu": 2630,
      "compan": 2631,
      "ler": 2632,
      "ham": 2633,
      "exc": 2634,
      "ages": 2635,
      "happy": 2636,
      "america": 2637,
      "difficul": 2638,
      "ney": 2639,
      "hài": 2640,
      "liter": 2641,
      "xuyên": 2642,
      "acter": 2643,
      "death": 2644,
      "fas": 2645,
      "couldn": 2646,
      "disease": 2647,
      "learning": 2648,
      "depend": 2649,
      "cos": 2650,
      "hind": 2651,
      "psy": 2652,
      "ley": 2653,
      "finally": 2654,
      "relation": 2655,
      "dừng": 2656,
      "nhảy": 2657,
      "tors": 2658,
      "hiv": 2659,
      "ded": 2660,
      "ngàn": 2661,
      "deal": 2662,
      "super": 2663,
      "based": 2664,
      "during": 2665,
      "èn": 2666,
      "thơ": 2667,
      "rep": 2668,
      "site": 2669,
      "vac": 2670,
      "changed": 2671,
      "ầng": 2672,
      "thụ": 2673,
      "otion": 2674,
      "màn": 2675,
      "sid": 2676,
      "along": 2677,
      "amoun": 2678,
      "natural": 2679,
      "issue": 2680,
      "pa": 2681,
      "ring": 2682,
      "treat": 2683,
      "machine": 2684,
      "cop": 2685,
      "gest": 2686,
      "phe": 2687,
      "haps": 2688,
      "pred": 2689,
      "perhaps": 2690,
      "century": 2691,
      "ko": 2692,
      "kĩ": 2693,
      "box": 2694,
      "lin": 2695,
      "oil": 2696,
      "pal": 2697,
      "outside": 2698,
      "early": 2699,
      "decis": 2700,
      "population": 2701,
      "turned": 2702,
      "powerful": 2703,
      "figure": 2704,
      "chris": 2705,
      "sum": 2706,
      "hip": 2707,
      "behavior": 2708,
      "shar": 2709,
      "tầng": 2710,
      "given": 2711,
      "species": 2712,
      "lao": 2713,
      "lots": 2714,
      "ổn": 2715,
      "đỏ": 2716,
      "systems": 2717,
      "ký": 2718,
      "ures": 2719,
      "chem": 2720,
      "eat": 2721,
      "vor": 2722,
      "ster": 2723,
      "wards": 2724,
      "cháu": 2725,
      "cti": 2726,
      "đảm": 2727,
      "phổ": 2728,
      "olved": 2729,
      "sli": 2730,
      "guys": 2731,
      "draw": 2732,
      "bat": 2733,
      "hấp": 2734,
      "tải": 2735,
      "recent": 2736,
      "program": 2737,
      "die": 2738,
      "obvi": 2739,
      "press": 2740,
      "break": 2741,
      "iti": 2742,
      "ared": 2743,
      "culture": 2744,
      "audience": 2745,
      "rừng": 2746,
      "khái": 2747,
      "tù": 2748,
      "hà": 2749,
      "least": 2750,
      "image": 2751,
      "yourself": 2752,
      "easy": 2753,
      "ade": 2754,
      "hos": 2755,
      "mand": 2756,
      "economic": 2757,
      "week": 2758,
      "mos": 2759,
      "intr": 2760,
      "khởi": 2761,
      "known": 2762,
      "cost": 2763,
      "oud": 2764,
      "knowled": 2765,
      "bom": 2766,
      "ngăn": 2767,
      "chỉnh": 2768,
      "foot": 2769,
      "media": 2770,
      "dream": 2771,
      "paper": 2772,
      "animals": 2773,
      "16": 2774,
      "luy": 2775,
      "behind": 2776,
      "ished": 2777,
      "góc": 2778,
      "kim": 2779,
      "nhắc": 2780,
      "mole": 2781,
      "plant": 2782,
      "short": 2783,
      "personal": 2784,
      "sle": 2785,
      "memor": 2786,
      "món": 2787,
      "ched": 2788,
      "mùa": 2789,
      "ót": 2790,
      "vered": 2791,
      "tention": 2792,
      "blue": 2793,
      "companies": 2794,
      "stay": 2795,
      "defin": 2796,
      "realized": 2797,
      "vari": 2798,
      "thải": 2799,
      "nghiêm": 2800,
      "iếp": 2801,
      "local": 2802,
      "khuôn": 2803,
      "đám": 2804,
      "hộp": 2805,
      "logical": 2806,
      "hút": 2807,
      "ither": 2808,
      "kê": 2809,
      "ẳn": 2810,
      "mạch": 2811,
      "parents": 2812,
      "simply": 2813,
      "14": 2814,
      "anti": 2815,
      "trad": 2816,
      "dĩ": 2817,
      "wall": 2818,
      "mấy": 2819,
      "môn": 2820,
      "text": 2821,
      "major": 2822,
      "difficult": 2823,
      "luyện": 2824,
      "13": 2825,
      "cong": 2826,
      "lá": 2827,
      "sour": 2828,
      "vin": 2829,
      "needed": 2830,
      "chuột": 2831,
      "taken": 2832,
      "size": 2833,
      "experiment": 2834,
      "ga": 2835,
      "igh": 2836,
      "tv": 2837,
      "common": 2838,
      "exist": 2839,
      "eyes": 2840,
      "hẳn": 2841,
      "ues": 2842,
      "leave": 2843,
      "verage": 2844,
      "needs": 2845,
      "500": 2846,
      "kid": 2847,
      "ped": 2848,
      "cial": 2849,
      "communic": 2850,
      "eight": 2851,
      "sent": 2852,
      "tem": 2853,
      "moving": 2854,
      "orig": 2855,
      "felt": 2856,
      "coi": 2857,
      "afghan": 2858,
      "tín": 2859,
      "tail": 2860,
      "doctor": 2861,
      "recor": 2862,
      "già": 2863,
      "giàu": 2864,
      "ties": 2865,
      "board": 2866,
      "fami": 2867,
      "lon": 2868,
      "ordin": 2869,
      "gion": 2870,
      "died": 2871,
      "fect": 2872,
      "type": 2873,
      "ches": 2874,
      "rent": 2875,
      "fight": 2876,
      "dy": 2877,
      "send": 2878,
      "ature": 2879,
      "bes": 2880,
      "ball": 2881,
      "liệt": 2882,
      "zy": 2883,
      "đảo": 2884,
      "tuyến": 2885,
      "europe": 2886,
      "fast": 2887,
      "phận": 2888,
      "hands": 2889,
      "tấn": 2890,
      "area": 2891,
      "extre": 2892,
      "political": 2893,
      "thắng": 2894,
      "giọng": 2895,
      "feet": 2896,
      "pattern": 2897,
      "bin": 2898,
      "ron": 2899,
      "itions": 2900,
      "film": 2901,
      "gor": 2902,
      "strong": 2903,
      "extra": 2904,
      "knowledge": 2905,
      "flo": 2906,
      "fur": 2907,
      "oce": 2908,
      "rev": 2909,
      "ites": 2910,
      "absolu": 2911,
      "value": 2912,
      "trao": 2913,
      "parts": 2914,
      "carbon": 2915,
      "sex": 2916,
      "resour": 2917,
      "huỷ": 2918,
      "street": 2919,
      "dậy": 2920,
      "hạ": 2921,
      "nặng": 2922,
      "sal": 2923,
      "reach": 2924,
      "ots": 2925,
      "quyển": 2926,
      "vân": 2927,
      "quang": 2928,
      "force": 2929,
      "seeing": 2930,
      "event": 2931,
      "leaders": 2932,
      "chứa": 2933,
      "posed": 2934,
      "stage": 2935,
      "cing": 2936,
      "ros": 2937,
      "squ": 2938,
      "beginning": 2939,
      "mềm": 2940,
      "chờ": 2941,
      "safe": 2942,
      "gent": 2943,
      "òi": 2944,
      "tow": 2945,
      "bun": 2946,
      "fear": 2947,
      "cannot": 2948,
      "rid": 2949,
      "spent": 2950,
      "market": 2951,
      "books": 2952,
      "nóng": 2953,
      "iran": 2954,
      "expect": 2955,
      "aged": 2956,
      "ray": 2957,
      "ski": 2958,
      "phù": 2959,
      "moder": 2960,
      "growth": 2961,
      "gal": 2962,
      "reli": 2963,
      "atta": 2964,
      "david": 2965,
      "south": 2966,
      "cles": 2967,
      "chủng": 2968,
      "17": 2969,
      "cities": 2970,
      "sóng": 2971,
      "ọt": 2972,
      "idence": 2973,
      "longer": 2974,
      "sions": 2975,
      "linh": 2976,
      "buộc": 2977,
      "voice": 2978,
      "kil": 2979,
      "pick": 2980,
      "ror": 2981,
      "buồn": 2982,
      "máu": 2983,
      "vic": 2984,
      "thảo": 2985,
      "chóng": 2986,
      "born": 2987,
      "mẽ": 2988,
      "nia": 2989,
      "ịp": 2990,
      "trùng": 2991,
      "fire": 2992,
      "wonderful": 2993,
      "xic": 2994,
      "perfect": 2995,
      "rence": 2996,
      "spir": 2997,
      "medi": 2998,
      "scale": 2999,
      "dưỡng": 3000,
      "rời": 3001,
      "sơ": 3002,
      "thiệu": 3003,
      "điên": 3004,
      "ier": 3005,
      "anal": 3006,
      "near": 3007,
      "whatever": 3008,
      "survi": 3009,
      "ctions": 3010,
      "sat": 3011,
      "sage": 3012,
      "hãi": 3013,
      "amount": 3014,
      "ned": 3015,
      "inclu": 3016,
      "began": 3017,
      "hood": 3018,
      "descri": 3019,
      "quickly": 3020,
      "cũ": 3021,
      "tồi": 3022,
      "đe": 3023,
      "ấc": 3024,
      "liz": 3025,
      "ama": 3026,
      "feed": 3027,
      "sud": 3028,
      "center": 3029,
      "baby": 3030,
      "tảng": 3031,
      "worth": 3032,
      "đáp": 3033,
      "dõi": 3034,
      "lộ": 3035,
      "sil": 3036,
      "uống": 3037,
      "trắng": 3038,
      "giving": 3039,
      "miễn": 3040,
      "centr": 3041,
      "support": 3042,
      "ira": 3043,
      "lost": 3044,
      "online": 3045,
      "prom": 3046,
      "profess": 3047,
      "special": 3048,
      "eye": 3049,
      "gs": 3050,
      "loạn": 3051,
      "dead": 3052,
      "morning": 3053,
      "sudden": 3054,
      "los": 3055,
      "thưởng": 3056,
      "cool": 3057,
      "poor": 3058,
      "sửa": 3059,
      "hot": 3060,
      "lầm": 3061,
      "pan": 3062,
      "vững": 3063,
      "anger": 3064,
      "terms": 3065,
      "write": 3066,
      "sleep": 3067,
      "nan": 3068,
      "white": 3069,
      "ran": 3070,
      "tường": 3071,
      "ểu": 3072,
      "tránh": 3073,
      "virus": 3074,
      "archite": 3075,
      "pen": 3076,
      "road": 3077,
      "tex": 3078,
      "pped": 3079,
      "cơn": 3080,
      "scre": 3081,
      "vent": 3082,
      "peace": 3083,
      "clos": 3084,
      "surpris": 3085,
      "lạnh": 3086,
      "đào": 3087,
      "camera": 3088,
      "predic": 3089,
      "camp": 3090,
      "mắn": 3091,
      "sand": 3092,
      "quảng": 3093,
      "khổng": 3094,
      "ax": 3095,
      "bs": 3096,
      "bảng": 3097,
      "đương": 3098,
      "chàng": 3099,
      "shi": 3100,
      "wouldn": 3101,
      "đói": 3102,
      "explo": 3103,
      "góp": 3104,
      "poli": 3105,
      "afghanistan": 3106,
      "lồ": 3107,
      "sam": 3108,
      "bel": 3109,
      "khoản": 3110,
      "fail": 3111,
      "images": 3112,
      "modern": 3113,
      "lish": 3114,
      "rele": 3115,
      "forward": 3116,
      "fish": 3117,
      "cting": 3118,
      "tried": 3119,
      "risk": 3120,
      "tiểu": 3121,
      "bul": 3122,
      "compe": 3123,
      "oxy": 3124,
      "either": 3125,
      "đèn": 3126,
      "hosp": 3127,
      "fine": 3128,
      "mảnh": 3129,
      "núi": 3130,
      "rup": 3131,
      "tờ": 3132,
      "trial": 3133,
      "hon": 3134,
      "isra": 3135,
      "consu": 3136,
      "temp": 3137,
      "boy": 3138,
      "solution": 3139,
      "opportunity": 3140,
      "mái": 3141,
      "sof": 3142,
      "cip": 3143,
      "spread": 3144,
      "male": 3145,
      "growing": 3146,
      "situ": 3147,
      "đỉnh": 3148,
      "active": 3149,
      "possi": 3150,
      "tổn": 3151,
      "meaning": 3152,
      "tent": 3153,
      "recogn": 3154,
      "quỹ": 3155,
      "approach": 3156,
      "sustain": 3157,
      "average": 3158,
      "ious": 3159,
      "rút": 3160,
      "attention": 3161,
      "sitting": 3162,
      "tộc": 3163,
      "gic": 3164,
      "reality": 3165,
      "wood": 3166,
      "lẫn": 3167,
      "ange": 3168,
      "changes": 3169,
      "lands": 3170,
      "extreme": 3171,
      "diệu": 3172,
      "gone": 3173,
      "usu": 3174,
      "phil": 3175,
      "wash": 3176,
      "color": 3177,
      "weeks": 3178,
      "west": 3179,
      "english": 3180,
      "trận": 3181,
      "telling": 3182,
      "animal": 3183,
      "nice": 3184,
      "sc": 3185,
      "feeling": 3186,
      "solve": 3187,
      "material": 3188,
      "bề": 3189,
      "eve": 3190,
      "ớm": 3191,
      "trồng": 3192,
      "quên": 3193,
      "phỏng": 3194,
      "stress": 3195,
      "institu": 3196,
      "band": 3197,
      "dường": 3198,
      "inde": 3199,
      "access": 3200,
      "cially": 3201,
      "economy": 3202,
      "tốn": 3203,
      "ences": 3204,
      "brought": 3205,
      "tural": 3206,
      "smart": 3207,
      "mãi": 3208,
      "physical": 3209,
      "21": 3210,
      "hiển": 3211,
      "rus": 3212,
      "track": 3213,
      "anyone": 3214,
      "climate": 3215,
      "iness": 3216,
      "trì": 3217,
      "developed": 3218,
      "scientists": 3219,
      "save": 3220,
      "changing": 3221,
      "crit": 3222,
      "interested": 3223,
      "individual": 3224,
      "achi": 3225,
      "rap": 3226,
      "espe": 3227,
      "sugg": 3228,
      "ilar": 3229,
      "forest": 3230,
      "bill": 3231,
      "favor": 3232,
      "invest": 3233,
      "psycho": 3234,
      "huy": 3235,
      "yon": 3236,
      "quần": 3237,
      "giỏi": 3238,
      "increas": 3239,
      "dou": 3240,
      "cầm": 3241,
      "hảo": 3242,
      "mời": 3243,
      "slow": 3244,
      "photograph": 3245,
      "flow": 3246,
      "gas": 3247,
      "seems": 3248,
      "dark": 3249,
      "tradition": 3250,
      "rơi": 3251,
      "áy": 3252,
      "chó": 3253,
      "ators": 3254,
      "fair": 3255,
      "joy": 3256,
      "developing": 3257,
      "affe": 3258,
      "tar": 3259,
      "vàng": 3260,
      "tele": 3261,
      "humans": 3262,
      "writing": 3263,
      "playing": 3264,
      "girls": 3265,
      "bật": 3266,
      "cỡ": 3267,
      "hôn": 3268,
      "vợ": 3269,
      "chạm": 3270,
      "development": 3271,
      "democra": 3272,
      "tools": 3273,
      "ky": 3274,
      "lương": 3275,
      "cali": 3276,
      "running": 3277,
      "revolution": 3278,
      "24": 3279,
      "gar": 3280,
      "chấm": 3281,
      "inal": 3282,
      "phấn": 3283,
      "collec": 3284,
      "understanding": 3285,
      "challenge": 3286,
      "bền": 3287,
      "kí": 3288,
      "tiềm": 3289,
      "khuẩn": 3290,
      "lay": 3291,
      "asking": 3292,
      "sea": 3293,
      "creating": 3294,
      "millions": 3295,
      "truth": 3296,
      "trust": 3297,
      "incredible": 3298,
      "bữa": 3299,
      "rate": 3300,
      "vốn": 3301,
      "alone": 3302,
      "realize": 3303,
      "hit": 3304,
      "map": 3305,
      "mine": 3306,
      "soon": 3307,
      "nghìn": 3308,
      "khoá": 3309,
      "forms": 3310,
      "structure": 3311,
      "nal": 3312,
      "path": 3313,
      "ually": 3314,
      "ya": 3315,
      "cru": 3316,
      "normal": 3317,
      "generation": 3318,
      "sánh": 3319,
      "quality": 3320,
      "nghỉ": 3321,
      "chiếm": 3322,
      "starting": 3323,
      "inese": 3324,
      "ocean": 3325,
      "nổ": 3326,
      "terri": 3327,
      "plane": 3328,
      "facebook": 3329,
      "numbers": 3330,
      "clo": 3331,
      "ony": 3332,
      "vill": 3333,
      "199": 3334,
      "wrote": 3335,
      "general": 3336,
      "điệu": 3337,
      "ngừng": 3338,
      "ried": 3339,
      "emotion": 3340,
      "poll": 3341,
      "impact": 3342,
      "issues": 3343,
      "produce": 3344,
      "phere": 3345,
      "aking": 3346,
      "fle": 3347,
      "xương": 3348,
      "position": 3349,
      "thịt": 3350,
      "lửa": 3351,
      "nắm": 3352,
      "oph": 3353,
      "consci": 3354,
      "hoảng": 3355,
      "tiny": 3356,
      "bottom": 3357,
      "similar": 3358,
      "khích": 3359,
      "làng": 3360,
      "brid": 3361,
      "guess": 3362,
      "blood": 3363,
      "chinese": 3364,
      "secre": 3365,
      "ghế": 3366,
      "ane": 3367,
      "argu": 3368,
      "phối": 3369,
      "giấc": 3370,
      "emer": 3371,
      "likely": 3372,
      "chuỗi": 3373,
      "north": 3374,
      "multi": 3375,
      "benef": 3376,
      "innovation": 3377,
      "biên": 3378,
      "hào": 3379,
      "sis": 3380,
      "tô": 3381,
      "tou": 3382,
      "vỡ": 3383,
      "chồng": 3384,
      "gió": 3385,
      "literally": 3386,
      "lam": 3387,
      "tách": 3388,
      "khẩu": 3389,
      "ended": 3390,
      "poin": 3391,
      "patient": 3392,
      "ordinary": 3393,
      "vĩ": 3394,
      "đằng": 3395,
      "tage": 3396,
      "product": 3397,
      "hundreds": 3398,
      "university": 3399,
      "ker": 3400,
      "wide": 3401,
      "rain": 3402,
      "cis": 3403,
      "games": 3404,
      "kịch": 3405,
      "post": 3406,
      "ut": 3407,
      "khuy": 3408,
      "peri": 3409,
      "network": 3410,
      "hổ": 3411,
      "sáu": 3412,
      "ặm": 3413,
      "mee": 3414,
      "knows": 3415,
      "medic": 3416,
      "imagin": 3417,
      "current": 3418,
      "lad": 3419,
      "neigh": 3420,
      "travel": 3421,
      "sounds": 3422,
      "ials": 3423,
      "round": 3424,
      "thor": 3425,
      "cei": 3426,
      "sight": 3427,
      "kill": 3428,
      "300": 3429,
      "sớm": 3430,
      "chảy": 3431,
      "cars": 3432,
      "sót": 3433,
      "code": 3434,
      "protein": 3435,
      "absolutely": 3436,
      "especially": 3437,
      "rang": 3438,
      "loạt": 3439,
      "spi": 3440,
      "cked": 3441,
      "thoát": 3442,
      "movement": 3443,
      "israel": 3444,
      "sed": 3445,
      "areas": 3446,
      "patients": 3447,
      "town": 3448,
      "east": 3449,
      "mũ": 3450,
      "chậm": 3451,
      "tran": 3452,
      "anda": 3453,
      "gives": 3454,
      "tual": 3455,
      "late": 3456,
      "function": 3457,
      "califor": 3458,
      "sạch": 3459,
      "wish": 3460,
      "khứ": 3461,
      "connected": 3462,
      "tắt": 3463,
      "onto": 3464,
      "consid": 3465,
      "moved": 3466,
      "ado": 3467,
      "tàn": 3468,
      "chào": 3469,
      "nel": 3470,
      "ada": 3471,
      "coura": 3472,
      "gree": 3473,
      "zz": 3474,
      "ẹn": 3475,
      "ances": 3476,
      "theory": 3477,
      "nghề": 3478,
      "email": 3479,
      "measure": 3480,
      "california": 3481,
      "atic": 3482,
      "convers": 3483,
      "nobody": 3484,
      "logies": 3485,
      "discovered": 3486,
      "bọn": 3487,
      "lối": 3488,
      "pin": 3489,
      "pas": 3490,
      "push": 3491,
      "rul": 3492,
      "sông": 3493,
      "pictures": 3494,
      "micro": 3495,
      "result": 3496,
      "genetic": 3497,
      "nine": 3498,
      "represent": 3499,
      "ese": 3500,
      "showed": 3501,
      "industry": 3502,
      "gợi": 3503,
      "requi": 3504,
      "invent": 3505,
      "bè": 3506,
      "lặp": 3507,
      "rom": 3508,
      "meet": 3509,
      "door": 3510,
      "suất": 3511,
      "fold": 3512,
      "avail": 3513,
      "democracy": 3514,
      "ứt": 3515,
      "thre": 3516,
      "trại": 3517,
      "fortun": 3518,
      "usion": 3519,
      "viễn": 3520,
      "teachers": 3521,
      "aids": 3522,
      "moun": 3523,
      "hang": 3524,
      "intelli": 3525,
      "effective": 3526,
      "ctic": 3527,
      "hung": 3528,
      "ùa": 3529,
      "đế": 3530,
      "deli": 3531,
      "wait": 3532,
      "ãn": 3533,
      "phê": 3534,
      "lea": 3535,
      "proper": 3536,
      "ươi": 3537,
      "evolution": 3538,
      "fundam": 3539,
      "materials": 3540,
      "incredibly": 3541,
      "birth": 3542,
      "fundament": 3543,
      "cà": 3544,
      "pau": 3545,
      "va": 3546,
      "ency": 3547,
      "radio": 3548,
      "strate": 3549,
      "entially": 3550,
      "source": 3551,
      "london": 3552,
      "iraq": 3553,
      "lỗ": 3554,
      "mers": 3555,
      "túi": 3556,
      "uals": 3557,
      "loc": 3558,
      "necess": 3559,
      "vention": 3560,
      "happiness": 3561,
      "surface": 3562,
      "mission": 3563,
      "ie": 3564,
      "sỹ": 3565,
      "haven": 3566,
      "sup": 3567,
      "mental": 3568,
      "ards": 3569,
      "creative": 3570,
      "bert": 3571,
      "transform": 3572,
      "aware": 3573,
      "resources": 3574,
      "indeed": 3575,
      "ngại": 3576,
      "trưng": 3577,
      "identi": 3578,
      "const": 3579,
      "compass": 3580,
      "potential": 3581,
      "relationship": 3582,
      "zer": 3583,
      "ựng": 3584,
      "nhé": 3585,
      "beyon": 3586,
      "mag": 3587,
      "tribut": 3588,
      "message": 3589,
      "tán": 3590,
      "thước": 3591,
      "trữ": 3592,
      "astr": 3593,
      "among": 3594,
      "marke": 3595,
      "talked": 3596,
      "office": 3597,
      "recently": 3598,
      "obviously": 3599,
      "fai": 3600,
      "uce": 3601,
      "website": 3602,
      "beyond": 3603,
      "cú": 3604,
      "cờ": 3605,
      "dp": 3606,
      "vate": 3607,
      "lat": 3608,
      "mad": 3609,
      "ói": 3610,
      "chance": 3611,
      "kháng": 3612,
      "phiên": 3613,
      "nguyện": 3614,
      "visual": 3615,
      "groups": 3616,
      "dặm": 3617,
      "vol": 3618,
      "choice": 3619,
      "cover": 3620,
      "braz": 3621,
      "resul": 3622,
      "digital": 3623,
      "eth": 3624,
      "kiệm": 3625,
      "mass": 3626,
      "đăng": 3627,
      "ery": 3628,
      "iếng": 3629,
      "prim": 3630,
      "count": 3631,
      "practi": 3632,
      "danger": 3633,
      "nar": 3634,
      "itch": 3635,
      "scienti": 3636,
      "schools": 3637,
      "involved": 3638,
      "né": 3639,
      "ingly": 3640,
      "khoảnh": 3641,
      "shape": 3642,
      "xico": 3643,
      "period": 3644,
      "bụ": 3645,
      "bơi": 3646,
      "tit": 3647,
      "sốt": 3648,
      "syn": 3649,
      "medical": 3650,
      "moral": 3651,
      "electric": 3652,
      "journey": 3653,
      "transp": 3654,
      "ging": 3655,
      "tụ": 3656,
      "wear": 3657,
      "sold": 3658,
      "ference": 3659,
      "ement": 3660,
      "advan": 3661,
      "technologies": 3662,
      "aim": 3663,
      "bờ": 3664,
      "lines": 3665,
      "nâng": 3666,
      "tàng": 3667,
      "vil": 3668,
      "nhắn": 3669,
      "mechan": 3670,
      "cope": 3671,
      "izing": 3672,
      "regul": 3673,
      "vỏ": 3674,
      "aging": 3675,
      "park": 3676,
      "fant": 3677,
      "ible": 3678,
      "ngài": 3679,
      "thảm": 3680,
      "concer": 3681,
      "please": 3682,
      "pression": 3683,
      "thoả": 3684,
      "đuổi": 3685,
      "rules": 3686,
      "available": 3687,
      "bil": 3688,
      "cit": 3689,
      "cause": 3690,
      "wes": 3691,
      "dimen": 3692,
      "prog": 3693,
      "sens": 3694,
      "miles": 3695,
      "sever": 3696,
      "ghép": 3697,
      "geor": 3698,
      "projects": 3699,
      "everywhere": 3700,
      "pping": 3701,
      "ka": 3702,
      "thăm": 3703,
      "walking": 3704,
      "kém": 3705,
      "violence": 3706,
      "rand": 3707,
      "arti": 3708,
      "phen": 3709,
      "brit": 3710,
      "cris": 3711,
      "join": 3712,
      "designed": 3713,
      "drive": 3714,
      "slide": 3715,
      "situation": 3716,
      "consider": 3717,
      "3d": 3718,
      "ners": 3719,
      "conta": 3720,
      "ưỡi": 3721,
      "freed": 3722,
      "screen": 3723,
      "conscious": 3724,
      "smi": 3725,
      "thở": 3726,
      "abor": 3727,
      "teacher": 3728,
      "device": 3729,
      "compassion": 3730,
      "hid": 3731,
      "rẻ": 3732,
      "lived": 3733,
      "clin": 3734,
      "lặng": 3735,
      "nỗ": 3736,
      "vết": 3737,
      "ensive": 3738,
      "enter": 3739,
      "hoang": 3740,
      "memory": 3741,
      "bia": 3742,
      "ìa": 3743,
      "tric": 3744,
      "tical": 3745,
      "shif": 3746,
      "blog": 3747,
      "clean": 3748,
      "minute": 3749,
      "individuals": 3750,
      "400": 3751,
      "dã": 3752,
      "nhẹ": 3753,
      "ghter": 3754,
      "talks": 3755,
      "putting": 3756,
      "xoay": 3757,
      "gt": 3758,
      "sit": 3759,
      "wis": 3760,
      "fort": 3761,
      "198": 3762,
      "voi": 3763,
      "suddenly": 3764,
      "hùng": 3765,
      "region": 3766,
      "author": 3767,
      "passion": 3768,
      "sky": 3769,
      "ders": 3770,
      "ged": 3771,
      "jap": 3772,
      "lap": 3773,
      "lọc": 3774,
      "tròn": 3775,
      "becomes": 3776,
      "waste": 3777,
      "impos": 3778,
      "tells": 3779,
      "direct": 3780,
      "chair": 3781,
      "inc": 3782,
      "ows": 3783,
      "blind": 3784,
      "square": 3785,
      "washing": 3786,
      "brazil": 3787,
      "điệp": 3788,
      "trống": 3789,
      "antly": 3790,
      "ffici": 3791,
      "bigger": 3792,
      "evidence": 3793,
      "japan": 3794,
      "fy": 3795,
      "tau": 3796,
      "certainly": 3797,
      "college": 3798,
      "hospital": 3799,
      "freedom": 3800,
      "bacter": 3801,
      "lf": 3802,
      "link": 3803,
      "publ": 3804,
      "bodies": 3805,
      "mùi": 3806,
      "improve": 3807,
      "results": 3808,
      "hom": 3809,
      "itter": 3810,
      "arm": 3811,
      "mexico": 3812,
      "giám": 3813,
      "brains": 3814,
      "computers": 3815,
      "further": 3816,
      "bò": 3817,
      "lose": 3818,
      "lục": 3819,
      "ngẫu": 3820,
      "basic": 3821,
      "cape": 3822,
      "crazy": 3823,
      "reasons": 3824,
      "effect": 3825,
      "scientific": 3826,
      "hiệp": 3827,
      "lính": 3828,
      "scan": 3829,
      "đẳng": 3830,
      "load": 3831,
      "hoàng": 3832,
      "adul": 3833,
      "anybody": 3834,
      "tware": 3835,
      "chemical": 3836,
      "introd": 3837,
      "mc": 3838,
      "đam": 3839,
      "thánh": 3840,
      "lành": 3841,
      "icans": 3842,
      "plastic": 3843,
      "thuỷ": 3844,
      "positive": 3845,
      "prison": 3846,
      "towards": 3847,
      "neu": 3848,
      "notice": 3849,
      "ception": 3850,
      "software": 3851,
      "citiz": 3852,
      "las": 3853,
      "pack": 3854,
      "tally": 3855,
      "income": 3856,
      "doạ": 3857,
      "mobi": 3858,
      "favorite": 3859,
      "gence": 3860,
      "thừa": 3861,
      "arily": 3862,
      "assu": 3863,
      "solar": 3864,
      "đoàn": 3865,
      "speed": 3866,
      "liar": 3867,
      "wild": 3868,
      "tube": 3869,
      "dic": 3870,
      "thác": 3871,
      "trích": 3872,
      "arab": 3873,
      "acy": 3874,
      "deter": 3875,
      "canada": 3876,
      "cies": 3877,
      "thuận": 3878,
      "calcul": 3879,
      "minis": 3880,
      "jobs": 3881,
      "appear": 3882,
      "45": 3883,
      "cking": 3884,
      "dad": 3885,
      "rác": 3886,
      "úa": 3887,
      "đựng": 3888,
      "plants": 3889,
      "bank": 3890,
      "examples": 3891,
      "starts": 3892,
      "vacc": 3893,
      "taught": 3894,
      "hall": 3895,
      "pose": 3896,
      "diag": 3897,
      "math": 3898,
      "mix": 3899,
      "particip": 3900,
      "dist": 3901,
      "ủi": 3902,
      "thai": 3903,
      "bud": 3904,
      "term": 3905,
      "crim": 3906,
      "biggest": 3907,
      "gradu": 3908,
      "finan": 3909,
      "student": 3910,
      "harv": 3911,
      "allowed": 3912,
      "several": 3913,
      "cấy": 3914,
      "thang": 3915,
      "jud": 3916,
      "faster": 3917,
      "hắn": 3918,
      "lễ": 3919,
      "swi": 3920,
      "apart": 3921,
      "secur": 3922,
      "họp": 3923,
      "choose": 3924,
      "content": 3925,
      "fix": 3926,
      "particularly": 3927,
      "western": 3928,
      "75": 3929,
      "gdp": 3930,
      "lower": 3931,
      "page": 3932,
      "offe": 3933,
      "weight": 3934,
      "sad": 3935,
      "mathem": 3936,
      "showing": 3937,
      "mathemat": 3938,
      "bol": 3939,
      "nic": 3940,
      "đạp": 3941,
      "ớt": 3942,
      "stre": 3943,
      "lãng": 3944,
      "eventually": 3945,
      "neighbor": 3946,
      "dau": 3947,
      "miếng": 3948,
      "ove": 3949,
      "chặt": 3950,
      "rais": 3951,
      "loy": 3952,
      "core": 3953,
      "hur": 3954,
      "communities": 3955,
      "nhuận": 3956,
      "circu": 3957,
      "loved": 3958,
      "brother": 3959,
      "drugs": 3960,
      "ith": 3961,
      "lược": 3962,
      "mây": 3963,
      "manh": 3964,
      "mừng": 3965,
      "tật": 3966,
      "nhựa": 3967,
      "giảng": 3968,
      "icians": 3969,
      "logic": 3970,
      "confli": 3971,
      "glass": 3972,
      "architec": 3973,
      "cat": 3974,
      "lắp": 3975,
      "totally": 3976,
      "els": 3977,
      "carry": 3978,
      "kenya": 3979,
      "response": 3980,
      "labor": 3981,
      "cục": 3982,
      "cãi": 3983,
      "mot": 3984,
      "dete": 3985,
      "ades": 3986,
      "decisions": 3987,
      "150": 3988,
      "immedi": 3989,
      "ườn": 3990,
      "cook": 3991,
      "specific": 3992,
      "collabor": 3993,
      "village": 3994,
      "khấu": 3995,
      "sell": 3996,
      "worse": 3997,
      "uses": 3998,
      "magic": 3999,
      "pover": 4000,
      "international": 4001,
      "minds": 4002,
      "ore": 4003,
      "chặn": 4004,
      "tuyên": 4005,
      "fied": 4006,
      "watching": 4007,
      "skin": 4008,
      "secret": 4009,
      "george": 4010,
      "hương": 4011,
      "mại": 4012,
      "ric": 4013,
      "yên": 4014,
      "actions": 4015,
      "hop": 4016,
      "iger": 4017,
      "brand": 4018,
      "grew": 4019,
      "ngoái": 4020,
      "training": 4021,
      "central": 4022,
      "bridge": 4023,
      "meeting": 4024,
      "security": 4025,
      "sợi": 4026,
      "ngang": 4027,
      "thấu": 4028,
      "remark": 4029,
      "detail": 4030,
      "polic": 4031,
      "twitter": 4032,
      "massive": 4033,
      "laun": 4034,
      "report": 4035,
      "bảy": 4036,
      "diệt": 4037,
      "nuc": 4038,
      "rập": 4039,
      "sess": 4040,
      "wise": 4041,
      "za": 4042,
      "đòi": 4043,
      "thận": 4044,
      "thầy": 4045,
      "sym": 4046,
      "character": 4047,
      "frank": 4048,
      "traditional": 4049,
      "2000": 4050,
      "nas": 4051,
      "swe": 4052,
      "nhịp": 4053,
      "cát": 4054,
      "version": 4055,
      "ustr": 4056,
      "provid": 4057,
      "cold": 4058,
      "studies": 4059,
      "organiz": 4060,
      "signific": 4061,
      "task": 4062,
      "ense": 4063,
      "pha": 4064,
      "huống": 4065,
      "named": 4066,
      "service": 4067,
      "bing": 4068,
      "dị": 4069,
      "dance": 4070,
      "mực": 4071,
      "đùa": 4072,
      "thao": 4073,
      "atures": 4074,
      "influ": 4075,
      "pected": 4076,
      "cản": 4077,
      "teen": 4078,
      "unch": 4079,
      "artist": 4080,
      "wants": 4081,
      "cross": 4082,
      "organization": 4083,
      "engineering": 4084,
      "activity": 4085,
      "touch": 4086,
      "crisis": 4087,
      "mobile": 4088,
      "ech": 4089,
      "mous": 4090,
      "đống": 4091,
      "ngth": 4092,
      "tract": 4093,
      "perform": 4094,
      "shown": 4095,
      "types": 4096,
      "decision": 4097,
      "including": 4098,
      "fortunately": 4099,
      "poverty": 4100,
      "cặp": 4101,
      "sổ": 4102,
      "zed": 4103,
      "chép": 4104,
      "inspi": 4105,
      "wife": 4106,
      "perspec": 4107,
      "buildings": 4108,
      "trees": 4109,
      "largest": 4110,
      "expensive": 4111,
      "súng": 4112,
      "chán": 4113,
      "separ": 4114,
      "meant": 4115,
      "ably": 4116,
      "pros": 4117,
      "discus": 4118,
      "robots": 4119,
      "temper": 4120,
      "points": 4121,
      "bắn": 4122,
      "einste": 4123,
      "nấm": 4124,
      "vong": 4125,
      "tràn": 4126,
      "def": 4127,
      "matic": 4128,
      "allows": 4129,
      "conflict": 4130,
      "cứng": 4131,
      "tỏ": 4132,
      "vú": 4133,
      "éo": 4134,
      "ngọn": 4135,
      "thù": 4136,
      "ale": 4137,
      "objects": 4138,
      "finding": 4139,
      "continue": 4140,
      "police": 4141,
      "einstein": 4142,
      "bối": 4143,
      "hiếm": 4144,
      "mập": 4145,
      "nhằm": 4146,
      "khung": 4147,
      "movie": 4148,
      "lights": 4149,
      "icial": 4150,
      "products": 4151,
      "logist": 4152,
      "nation": 4153,
      "une": 4154,
      "infe": 4155,
      "beat": 4156,
      "lier": 4157,
      "suff": 4158,
      "saving": 4159,
      "politics": 4160,
      "lly": 4161,
      "móc": 4162,
      "osoph": 4163,
      "itary": 4164,
      "aces": 4165,
      "howe": 4166,
      "tery": 4167,
      "americans": 4168,
      "solutions": 4169,
      "listening": 4170,
      "extremely": 4171,
      "usually": 4172,
      "rs": 4173,
      "thetic": 4174,
      "triết": 4175,
      "trào": 4176,
      "phiếu": 4177,
      "associ": 4178,
      "tiêm": 4179,
      "meth": 4180,
      "context": 4181,
      "itten": 4182,
      "reading": 4183,
      "truly": 4184,
      "connect": 4185,
      "fascin": 4186,
      "familiar": 4187,
      "côn": 4188,
      "lif": 4189,
      "hack": 4190,
      "rock": 4191,
      "geo": 4192,
      "conditions": 4193,
      "khía": 4194,
      "engage": 4195,
      "cases": 4196,
      "killed": 4197,
      "sme": 4198,
      "sụp": 4199,
      "usti": 4200,
      "standing": 4201,
      "excited": 4202,
      "conversation": 4203,
      "supposed": 4204,
      "hè": 4205,
      "kêu": 4206,
      "đảng": 4207,
      "goal": 4208,
      "adn": 4209,
      "pers": 4210,
      "anymore": 4211,
      "store": 4212,
      "series": 4213,
      "istics": 4214,
      "washington": 4215,
      "aid": 4216,
      "cise": 4217,
      "gay": 4218,
      "lũ": 4219,
      "seum": 4220,
      "hoả": 4221,
      "role": 4222,
      "rights": 4223,
      "licated": 4224,
      "famous": 4225,
      "african": 4226,
      "continu": 4227,
      "lừa": 4228,
      "mưa": 4229,
      "tá": 4230,
      "thom": 4231,
      "inse": 4232,
      "above": 4233,
      "gold": 4234,
      "pleas": 4235,
      "hero": 4236,
      "surger": 4237,
      "models": 4238,
      "paul": 4239,
      "however": 4240,
      "mét": 4241,
      "ana": 4242,
      "rely": 4243,
      "alive": 4244,
      "liền": 4245,
      "provide": 4246,
      "party": 4247,
      "higher": 4248,
      "production": 4249,
      "machines": 4250,
      "exciting": 4251,
      "extraordinary": 4252,
      "courage": 4253,
      "dối": 4254,
      "gỗ": 4255,
      "hous": 4256,
      "rise": 4257,
      "ậc": 4258,
      "thuy": 4259,
      "khảo": 4260,
      "kept": 4261,
      "bles": 4262,
      "béo": 4263,
      "đua": 4264,
      "successful": 4265,
      "sorts": 4266,
      "impossible": 4267,
      "căng": 4268,
      "fli": 4269,
      "niger": 4270,
      "rượ": 4271,
      "smo": 4272,
      "trou": 4273,
      "raise": 4274,
      "proto": 4275,
      "actual": 4276,
      "paris": 4277,
      "capital": 4278,
      "societies": 4279,
      "skills": 4280,
      "philosoph": 4281,
      "threat": 4282,
      "progress": 4283,
      "financial": 4284,
      "bậc": 4285,
      "effici": 4286,
      "hối": 4287,
      "justi": 4288,
      "mart": 4289,
      "wat": 4290,
      "thờ": 4291,
      "aut": 4292,
      "demon": 4293,
      "museum": 4294,
      "somehow": 4295,
      "manage": 4296,
      "strugg": 4297,
      "ativity": 4298,
      "method": 4299,
      "hải": 4300,
      "hun": 4301,
      "iv": 4302,
      "vul": 4303,
      "èm": 4304,
      "rem": 4305,
      "wiki": 4306,
      "sili": 4307,
      "co2": 4308,
      "anyway": 4309,
      "anywhere": 4310,
      "strange": 4311,
      "2008": 4312,
      "charles": 4313,
      "faces": 4314,
      "journal": 4315,
      "doctors": 4316,
      "policy": 4317,
      "rượu": 4318,
      "hen": 4319,
      "slight": 4320,
      "ured": 4321,
      "vit": 4322,
      "đập": 4323,
      "liber": 4324,
      "docu": 4325,
      "treatment": 4326,
      "families": 4327,
      "zero": 4328,
      "thuyền": 4329,
      "gã": 4330,
      "reci": 4331,
      "recei": 4332,
      "leo": 4333,
      "sexu": 4334,
      "ria": 4335,
      "adam": 4336,
      "mạc": 4337,
      "interact": 4338,
      "humanity": 4339,
      "teaching": 4340,
      "princi": 4341,
      "fundamental": 4342,
      "dai": 4343,
      "fit": 4344,
      "atory": 4345,
      "trầm": 4346,
      "tia": 4347,
      "hole": 4348,
      "essentially": 4349,
      "upon": 4350,
      "genes": 4351,
      "trade": 4352,
      "thoải": 4353,
      "broad": 4354,
      "pieces": 4355,
      "neurons": 4356,
      "ships": 4357,
      "cket": 4358,
      "nos": 4359,
      "scen": 4360,
      "dog": 4361,
      "perfor": 4362,
      "somewhere": 4363,
      "huấn": 4364,
      "afford": 4365,
      "tribu": 4366,
      "legal": 4367,
      "unders": 4368,
      "random": 4369,
      "bread": 4370,
      "ire": 4371,
      "mỏ": 4372,
      "pound": 4373,
      "ngưỡng": 4374,
      "chốt": 4375,
      "ref": 4376,
      "ultim": 4377,
      "cky": 4378,
      "cules": 4379,
      "throughout": 4380,
      "funny": 4381,
      "micros": 4382,
      "hỗn": 4383,
      "record": 4384,
      "bunch": 4385,
      "explore": 4386,
      "swim": 4387,
      "len": 4388,
      "chối": 4389,
      "tiệ": 4390,
      "convin": 4391,
      "grams": 4392,
      "visible": 4393,
      "colleag": 4394,
      "none": 4395,
      "táo": 4396,
      "đài": 4397,
      "inten": 4398,
      "strai": 4399,
      "written": 4400,
      "profession": 4401,
      "critical": 4402,
      "khuyến": 4403,
      "performan": 4404,
      "nhũng": 4405,
      "ghét": 4406,
      "mai": 4407,
      "larger": 4408,
      "tỉnh": 4409,
      "clearly": 4410,
      "ked": 4411,
      "mì": 4412,
      "py": 4413,
      "becoming": 4414,
      "custo": 4415,
      "tered": 4416,
      "shot": 4417,
      "seconds": 4418,
      "graphy": 4419,
      "beauty": 4420,
      "francis": 4421,
      "patterns": 4422,
      "medicine": 4423,
      "straight": 4424,
      "99": 4425,
      "mars": 4426,
      "ander": 4427,
      "wel": 4428,
      "race": 4429,
      "deb": 4430,
      "female": 4431,
      "except": 4432,
      "deser": 4433,
      "object": 4434,
      "cultural": 4435,
      "thanks": 4436,
      "corrup": 4437,
      "babies": 4438,
      "recognize": 4439,
      "fantastic": 4440,
      "biện": 4441,
      "hic": 4442,
      "aries": 4443,
      "rad": 4444,
      "cient": 4445,
      "greater": 4446,
      "connection": 4447,
      "perspective": 4448,
      "pak": 4449,
      "tas": 4450,
      "ngón": 4451,
      "cháy": 4452,
      "stream": 4453,
      "therefore": 4454,
      "plat": 4455,
      "micha": 4456,
      "belief": 4457,
      "michael": 4458,
      "35": 4459,
      "bổ": 4460,
      "nur": 4461,
      "ĩa": 4462,
      "ớp": 4463,
      "atom": 4464,
      "thuỵ": 4465,
      "willing": 4466,
      "urban": 4467,
      "desp": 4468,
      "serious": 4469,
      "older": 4470,
      "dollar": 4471,
      "environmental": 4472,
      "industrial": 4473,
      "mend": 4474,
      "nút": 4475,
      "tree": 4476,
      "đốc": 4477,
      "lying": 4478,
      "stars": 4479,
      "neg": 4480,
      "cloud": 4481,
      "unique": 4482,
      "smaller": 4483,
      "democr": 4484,
      "discover": 4485,
      "occur": 4486,
      "molecules": 4487,
      "architecture": 4488,
      "fan": 4489,
      "jump": 4490,
      "speaking": 4491,
      "throw": 4492,
      "complicated": 4493,
      "integr": 4494,
      "shared": 4495,
      "painting": 4496,
      "activ": 4497,
      "pakistan": 4498,
      "cỏ": 4499,
      "mạo": 4500,
      "đắt": 4501,
      "ali": 4502,
      "arri": 4503,
      "acc": 4504,
      "concept": 4505,
      "hydro": 4506,
      "healthy": 4507,
      "legs": 4508,
      "biology": 4509,
      "birds": 4510,
      "mũi": 4511,
      "bacteria": 4512,
      "hus": 4513,
      "chai": 4514,
      "asse": 4515,
      "hell": 4516,
      "phán": 4517,
      "creativity": 4518,
      "achieve": 4519,
      "eli": 4520,
      "fat": 4521,
      "hồn": 4522,
      "thả": 4523,
      "thọ": 4524,
      "trứng": 4525,
      "pher": 4526,
      "cele": 4527,
      "suit": 4528,
      "river": 4529,
      "combin": 4530,
      "electron": 4531,
      "logists": 4532,
      "dangerous": 4533,
      "bông": 4534,
      "săn": 4535,
      "xứng": 4536,
      "ently": 4537,
      "fellow": 4538,
      "civi": 4539,
      "cry": 4540,
      "condition": 4541,
      "decades": 4542,
      "ician": 4543,
      "costs": 4544,
      "copy": 4545,
      "electricity": 4546,
      "immediately": 4547,
      "thomas": 4548,
      "cỗ": 4549,
      "fing": 4550,
      "gain": 4551,
      "hiến": 4552,
      "túc": 4553,
      "xong": 4554,
      "thiểu": 4555,
      "trick": 4556,
      "alia": 4557,
      "org": 4558,
      "entre": 4559,
      "austr": 4560,
      "angel": 4561,
      "pull": 4562,
      "2010": 4563,
      "final": 4564,
      "increase": 4565,
      "protect": 4566,
      "levels": 4567,
      "organizations": 4568,
      "gọn": 4569,
      "nes": 4570,
      "oke": 4571,
      "pm": 4572,
      "rủi": 4573,
      "thạch": 4574,
      "trop": 4575,
      "tood": 4576,
      "youtube": 4577,
      "forth": 4578,
      "comfor": 4579,
      "print": 4580,
      "claim": 4581,
      "berg": 4582,
      "popular": 4583,
      "xoá": 4584,
      "summer": 4585,
      "practice": 4586,
      "remarkable": 4587,
      "surgery": 4588,
      "understood": 4589,
      "performance": 4590,
      "bãi": 4591,
      "jan": 4592,
      "ợt": 4593,
      "nho": 4594,
      "anth": 4595,
      "khát": 4596,
      "resist": 4597,
      "beings": 4598,
      "cụt": 4599,
      "sustainable": 4600,
      "gps": 4601,
      "nấu": 4602,
      "ased": 4603,
      "giận": 4604,
      "dinh": 4605,
      "related": 4606,
      "range": 4607,
      "celebr": 4608,
      "entrepre": 4609,
      "tạm": 4610,
      "vườn": 4611,
      "omen": 4612,
      "acity": 4613,
      "dere": 4614,
      "demand": 4615,
      "adap": 4616,
      "corre": 4617,
      "services": 4618,
      "campai": 4619,
      "base": 4620,
      "cột": 4621,
      "card": 4622,
      "rắc": 4623,
      "tóm": 4624,
      "traf": 4625,
      "era": 4626,
      "khiếp": 4627,
      "itation": 4628,
      "sequ": 4629,
      "auto": 4630,
      "curi": 4631,
      "mur": 4632,
      "miền": 4633,
      "boys": 4634,
      "ishing": 4635,
      "truyện": 4636,
      "earlier": 4637,
      "pedia": 4638,
      "surprising": 4639,
      "suggest": 4640,
      "citizens": 4641,
      "dày": 4642,
      "mộ": 4643,
      "nơ": 4644,
      "pul": 4645,
      "thổ": 4646,
      "thiệp": 4647,
      "apple": 4648,
      "hey": 4649,
      "thern": 4650,
      "thuê": 4651,
      "ending": 4652,
      "following": 4653,
      "intelligence": 4654,
      "bột": 4655,
      "bble": 4656,
      "dọc": 4657,
      "ered": 4658,
      "jaz": 4659,
      "kẹ": 4660,
      "tap": 4661,
      "đắn": 4662,
      "ớn": 4663,
      "ngũ": 4664,
      "chừng": 4665,
      "ano": 4666,
      "forget": 4667,
      "binh": 4668,
      "evolved": 4669,
      "waiting": 4670,
      "physics": 4671,
      "compet": 4672,
      "daughter": 4673,
      "vulner": 4674,
      "dàn": 4675,
      "hước": 4676,
      "lộn": 4677,
      "mò": 4678,
      "chẩn": 4679,
      "remain": 4680,
      "inves": 4681,
      "enced": 4682,
      "enjoy": 4683,
      "phó": 4684,
      "giành": 4685,
      "sty": 4686,
      "vert": 4687,
      "notic": 4688,
      "manu": 4689,
      "spaces": 4690,
      "mát": 4691,
      "mention": 4692,
      "transl": 4693,
      "private": 4694,
      "direction": 4695,
      "religi": 4696,
      "television": 4697,
      "bạc": 4698,
      "fash": 4699,
      "ib": 4700,
      "jer": 4701,
      "răng": 4702,
      "tóc": 4703,
      "đốt": 4704,
      "wealth": 4705,
      "acts": 4706,
      "price": 4707,
      "gotten": 4708,
      "interview": 4709,
      "itude": 4710,
      "check": 4711,
      "graphic": 4712,
      "walked": 4713,
      "military": 4714,
      "emotional": 4715,
      "65": 4716,
      "cốt": 4717,
      "coffe": 4718,
      "huyết": 4719,
      "mm": 4720,
      "mĩ": 4721,
      "xưa": 4722,
      "haiti": 4723,
      "ami": 4724,
      "moon": 4725,
      "ướt": 4726,
      "useful": 4727,
      "void": 4728,
      "challenges": 4729,
      "sharing": 4730,
      "scot": 4731,
      "bits": 4732,
      "ỗng": 4733,
      "nhấn": 4734,
      "lyn": 4735,
      "tuỳ": 4736,
      "thuần": 4737,
      "reduc": 4738,
      "crow": 4739,
      "career": 4740,
      "drop": 4741,
      "purpose": 4742,
      "cro": 4743,
      "cẩn": 4744,
      "eating": 4745,
      "gab": 4746,
      "mr": 4747,
      "đà": 4748,
      "reve": 4749,
      "iệng": 4750,
      "president": 4751,
      "members": 4752,
      "subject": 4753,
      "address": 4754,
      "trouble": 4755,
      "justice": 4756,
      "coffee": 4757,
      "600": 4758,
      "bó": 4759,
      "rưỡi": 4760,
      "ùi": 4761,
      "quê": 4762,
      "whose": 4763,
      "vehic": 4764,
      "cure": 4765,
      "iling": 4766,
      "himself": 4767,
      "helped": 4768,
      "frame": 4769,
      "nigeria": 4770,
      "slightly": 4771,
      "catch": 4772,
      "dying": 4773,
      "mir": 4774,
      "mble": 4775,
      "rô": 4776,
      "rào": 4777,
      "đĩa": 4778,
      "thưa": 4779,
      "bees": 4780,
      "choices": 4781,
      "divers": 4782,
      "etc": 4783,
      "driving": 4784,
      "focused": 4785,
      "obvious": 4786,
      "nuclear": 4787,
      "23": 4788,
      "gương": 4789,
      "mig": 4790,
      "tặng": 4791,
      "xâm": 4792,
      "ýt": 4793,
      "phones": 4794,
      "weren": 4795,
      "agree": 4796,
      "speech": 4797,
      "carto": 4798,
      "surround": 4799,
      "stick": 4800,
      "networks": 4801,
      "although": 4802,
      "values": 4803,
      "experiments": 4804,
      "invented": 4805,
      "phenomen": 4806,
      "bound": 4807,
      "fro": 4808,
      "gun": 4809,
      "james": 4810,
      "nhỉ": 4811,
      "instru": 4812,
      "island": 4813,
      "islam": 4814,
      "pet": 4815,
      "therap": 4816,
      "foundation": 4817,
      "complete": 4818,
      "classroom": 4819,
      "richard": 4820,
      "target": 4821,
      "ném": 4822,
      "neighborhood": 4823,
      "inspired": 4824,
      "mou": 4825,
      "mort": 4826,
      "thẩm": 4827,
      "trộn": 4828,
      "conference": 4829,
      "note": 4830,
      "khóc": 4831,
      "techni": 4832,
      "decide": 4833,
      "laugh": 4834,
      "diagnos": 4835,
      "fashion": 4836,
      "hẹn": 4837,
      "miệng": 4838,
      "sch": 4839,
      "xạ": 4840,
      "quar": 4841,
      "phổi": 4842,
      "worry": 4843,
      "via": 4844,
      "knowing": 4845,
      "creates": 4846,
      "destro": 4847,
      "standard": 4848,
      "cycle": 4849,
      "highly": 4850,
      "answers": 4851,
      "flying": 4852,
      "analy": 4853,
      "campaign": 4854,
      "lẻ": 4855,
      "mẩu": 4856,
      "raid": 4857,
      "robert": 4858,
      "mill": 4859,
      "rule": 4860,
      "introduc": 4861,
      "vaccine": 4862,
      "gà": 4863,
      "tám": 4864,
      "ann": 4865,
      "sequen": 4866,
      "decade": 4867,
      "profound": 4868,
      "identity": 4869,
      "streets": 4870,
      "complexity": 4871,
      "sugges": 4872,
      "collective": 4873,
      "dimension": 4874,
      "harvard": 4875,
      "comfortable": 4876,
      "cd": 4877,
      "cand": 4878,
      "dính": 4879,
      "lão": 4880,
      "mber": 4881,
      "wow": 4882,
      "zo": 4883,
      "thượng": 4884,
      "aster": 4885,
      "stan": 4886,
      "đón": 4887,
      "hea": 4888,
      "tuệ": 4889,
      "cooper": 4890,
      "studio": 4891,
      "counter": 4892,
      "drink": 4893,
      "profit": 4894,
      "spending": 4895,
      "transport": 4896,
      "cốc": 4897,
      "fed": 4898,
      "gue": 4899,
      "hằng": 4900,
      "ior": 4901,
      "iphone": 4902,
      "scar": 4903,
      "đớn": 4904,
      "independ": 4905,
      "enor": 4906,
      "unfortunately": 4907,
      "artists": 4908,
      "miêu": 4909,
      "turning": 4910,
      "instance": 4911,
      "temperature": 4912,
      "ahead": 4913,
      "bạch": 4914,
      "inh": 4915,
      "ile": 4916,
      "thal": 4917,
      "trăng": 4918,
      "trạm": 4919,
      "isms": 4920,
      "bus": 4921,
      "ceed": 4922,
      "differences": 4923,
      "corpor": 4924,
      "capacity": 4925,
      "arian": 4926,
      "galax": 4927,
      "diversity": 4928,
      "jam": 4929,
      "lỏng": 4930,
      "ốm": 4931,
      "wered": 4932,
      "civil": 4933,
      "diseas": 4934,
      "2007": 4935,
      "survive": 4936,
      "double": 4937,
      "đậu": 4938,
      "ngầm": 4939,
      "commer": 4940,
      "wheel": 4941,
      "greatest": 4942,
      "played": 4943,
      "shares": 4944,
      "struction": 4945,
      "paid": 4946,
      "original": 4947,
      "dynam": 4948,
      "leadership": 4949,
      "honest": 4950,
      "cường": 4951,
      "cast": 4952,
      "hạng": 4953,
      "pil": 4954,
      "tò": 4955,
      "vot": 4956,
      "zen": 4957,
      "ngựa": 4958,
      "nhạy": 4959,
      "ino": 4960,
      "infr": 4961,
      "quái": 4962,
      "stone": 4963,
      "worst": 4964,
      "tuyết": 4965,
      "lications": 4966,
      "grade": 4967,
      "joe": 4968,
      "đáy": 4969,
      "shop": 4970,
      "darwin": 4971,
      "scientist": 4972,
      "ii": 4973,
      "rough": 4974,
      "iss": 4975,
      "bee": 4976,
      "forces": 4977,
      "dered": 4978,
      "agen": 4979,
      "apped": 4980,
      "mostly": 4981,
      "brings": 4982,
      "foreign": 4983,
      "vuông": 4984,
      "responsi": 4985,
      "various": 4986,
      "floor": 4987,
      "terrible": 4988,
      "narr": 4989,
      "document": 4990,
      "corruption": 4991,
      "traffic": 4992,
      "diseases": 4993,
      "thợ": 4994,
      "quán": 4995,
      "held": 4996,
      "optim": 4997,
      "adv": 4998,
      "ilities": 4999,
      "kiên": 5000,
      "afraid": 5001,
      "tedx": 5002,
      "thoảng": 5003,
      "causes": 5004,
      "published": 5005,
      "husband": 5006,
      "avoid": 5007,
      "bow": 5008,
      "bone": 5009,
      "gate": 5010,
      "insu": 5011,
      "inspir": 5012,
      "trôi": 5013,
      "alex": 5014,
      "algor": 5015,
      "weap": 5016,
      "agr": 5017,
      "rench": 5018,
      "posite": 5019,
      "gging": 5020,
      "produced": 5021,
      "noticed": 5022,
      "mouth": 5023,
      "algorith": 5024,
      "bag": 5025,
      "bốt": 5026,
      "gon": 5027,
      "hứa": 5028,
      "ied": 5029,
      "kers": 5030,
      "lâm": 5031,
      "lack": 5032,
      "nét": 5033,
      "port": 5034,
      "rồ": 5035,
      "chick": 5036,
      "trắc": 5037,
      "quí": 5038,
      "giày": 5039,
      "seed": 5040,
      "hoại": 5041,
      "tured": 5042,
      "sia": 5043,
      "twice": 5044,
      "histor": 5045,
      "obama": 5046,
      "intel": 5047,
      "passed": 5048,
      "communicate": 5049,
      "directly": 5050,
      "cate": 5051,
      "jac": 5052,
      "chấn": 5053,
      "khô": 5054,
      "quét": 5055,
      "juli": 5056,
      "yellow": 5057,
      "missing": 5058,
      "nasa": 5059,
      "entrepreneur": 5060,
      "ja": 5061,
      "nướng": 5062,
      "rw": 5063,
      "vast": 5064,
      "ẻo": 5065,
      "ngã": 5066,
      "intu": 5067,
      "eric": 5068,
      "vey": 5069,
      "depart": 5070,
      "resh": 5071,
      "spot": 5072,
      "relative": 5073,
      "effort": 5074,
      "bringing": 5075,
      "laws": 5076,
      "nearly": 5077,
      "possibly": 5078,
      "smith": 5079,
      "civiliz": 5080,
      "22": 5081,
      "dry": 5082,
      "ety": 5083,
      "loss": 5084,
      "mèo": 5085,
      "sar": 5086,
      "zing": 5087,
      "atmos": 5088,
      "giường": 5089,
      "edge": 5090,
      "tang": 5091,
      "below": 5092,
      "accor": 5093,
      "ides": 5094,
      "stri": 5095,
      "experiences": 5096,
      "devices": 5097,
      "attack": 5098,
      "necessary": 5099,
      "significant": 5100,
      "cự": 5101,
      "kar": 5102,
      "lây": 5103,
      "scr": 5104,
      "ãng": 5105,
      "thỉnh": 5106,
      "nha": 5107,
      "sector": 5108,
      "cule": 5109,
      "novel": 5110,
      "tiếc": 5111,
      "prise": 5112,
      "steve": 5113,
      "valu": 5114,
      "mption": 5115,
      "sorry": 5116,
      "communication": 5117,
      "institutions": 5118,
      "autism": 5119,
      "mam": 5120,
      "tour": 5121,
      "vắc": 5122,
      "nga": 5123,
      "acade": 5124,
      "bush": 5125,
      "pengu": 5126,
      "sahar": 5127,
      "respect": 5128,
      "itted": 5129,
      "stopped": 5130,
      "compon": 5131,
      "gentle": 5132,
      "closer": 5133,
      "oxygen": 5134,
      "magaz": 5135,
      "martin": 5136,
      "wikipedia": 5137,
      "tribution": 5138,
      "kèm": 5139,
      "lưng": 5140,
      "tissue": 5141,
      "chăng": 5142,
      "trần": 5143,
      "estin": 5144,
      "ager": 5145,
      "reduce": 5146,
      "prot": 5147,
      "197": 5148,
      "basis": 5149,
      "athy": 5150,
      "expand": 5151,
      "burn": 5152,
      "mothers": 5153,
      "hearing": 5154,
      "đeo": 5155,
      "deliver": 5156,
      "colleagues": 5157,
      "ecos": 5158,
      "gard": 5159,
      "mac": 5160,
      "rout": 5161,
      "sac": 5162,
      "tĩnh": 5163,
      "yo": 5164,
      "chur": 5165,
      "regi": 5166,
      "gie": 5167,
      "tung": 5168,
      "cup": 5169,
      "prevent": 5170,
      "techn": 5171,
      "match": 5172,
      "moments": 5173,
      "astruc": 5174,
      "infrastruc": 5175,
      "lled": 5176,
      "mẻ": 5177,
      "rot": 5178,
      "ẫm": 5179,
      "return": 5180,
      "att": 5181,
      "otic": 5182,
      "kets": 5183,
      "lung": 5184,
      "serve": 5185,
      "mãn": 5186,
      "broken": 5187,
      "supply": 5188,
      "opportunities": 5189,
      "molecule": 5190,
      "religion": 5191,
      "đếm": 5192,
      "consciousness": 5193,
      "shift": 5194,
      "despite": 5195,
      "dán": 5196,
      "gam": 5197,
      "jon": 5198,
      "tough": 5199,
      "seas": 5200,
      "conserv": 5201,
      "wire": 5202,
      "ninh": 5203,
      "2009": 5204,
      "cụm": 5205,
      "helping": 5206,
      "norm": 5207,
      "bụng": 5208,
      "francisco": 5209,
      "tren": 5210,
      "total": 5211,
      "hair": 5212,
      "roll": 5213,
      "degre": 5214,
      "grown": 5215,
      "forever": 5216,
      "feels": 5217,
      "brea": 5218,
      "metap": 5219,
      "volun": 5220,
      "derek": 5221,
      "factu": 5222,
      "wit": 5223,
      "thói": 5224,
      "emot": 5225,
      "programs": 5226,
      "vinh": 5227,
      "lucky": 5228,
      "agre": 5229,
      "prep": 5230,
      "studying": 5231,
      "invol": 5232,
      "indian": 5233,
      "addition": 5234,
      "gói": 5235,
      "brilli": 5236,
      "motiv": 5237,
      "manufactu": 5238,
      "bic": 5239,
      "dò": 5240,
      "date": 5241,
      "hô": 5242,
      "hỏng": 5243,
      "itor": 5244,
      "jack": 5245,
      "lăn": 5246,
      "mri": 5247,
      "ẫy": 5248,
      "tha": 5249,
      "ancient": 5250,
      "insight": 5251,
      "quà": 5252,
      "station": 5253,
      "lied": 5254,
      "opposite": 5255,
      "governments": 5256,
      "structures": 5257,
      "emplo": 5258,
      "british": 5259,
      "agricul": 5260,
      "degrees": 5261,
      "bought": 5262,
      "gates": 5263,
      "lunch": 5264,
      "oly": 5265,
      "sick": 5266,
      "tân": 5267,
      "ụt": 5268,
      "ngon": 5269,
      "repe": 5270,
      "remind": 5271,
      "ison": 5272,
      "asia": 5273,
      "giơ": 5274,
      "giấu": 5275,
      "tian": 5276,
      "tax": 5277,
      "nobel": 5278,
      "ends": 5279,
      "puzz": 5280,
      "spring": 5281,
      "newsp": 5282,
      "colors": 5283,
      "importantly": 5284,
      "cheap": 5285,
      "block": 5286,
      "leading": 5287,
      "responsible": 5288,
      "majority": 5289,
      "failure": 5290,
      "oxyto": 5291,
      "laptop": 5292,
      "emotions": 5293,
      "equi": 5294,
      "gap": 5295,
      "gment": 5296,
      "hư": 5297,
      "lệnh": 5298,
      "vote": 5299,
      "wol": 5300,
      "ising": 5301,
      "khuyên": 5302,
      "aling": 5303,
      "seat": 5304,
      "ram": 5305,
      "meters": 5306,
      "commit": 5307,
      "exer": 5308,
      "coast": 5309,
      "ticle": 5310,
      "marri": 5311,
      "fill": 5312,
      "fuel": 5313,
      "crime": 5314,
      "relationships": 5315,
      "pressed": 5316,
      "imagination": 5317,
      "regular": 5318,
      "lifes": 5319,
      "tiệc": 5320,
      "oxytocin": 5321,
      "french": 5322,
      "gỡ": 5323,
      "lôi": 5324,
      "ùm": 5325,
      "haw": 5326,
      "imer": 5327,
      "workers": 5328,
      "tremend": 5329,
      "balance": 5330,
      "breast": 5331,
      "respond": 5332,
      "atives": 5333,
      "domin": 5334,
      "kênh": 5335,
      "victim": 5336,
      "wisdom": 5337,
      "determin": 5338,
      "27": 5339,
      "dao": 5340,
      "lặn": 5341,
      "mờ": 5342,
      "tháp": 5343,
      "attan": 5344,
      "inju": 5345,
      "khao": 5346,
      "ases": 5347,
      "account": 5348,
      "embra": 5349,
      "apply": 5350,
      "1990": 5351,
      "shoot": 5352,
      "effects": 5353,
      "window": 5354,
      "usual": 5355,
      "mountain": 5356,
      "sexual": 5357,
      "bão": 5358,
      "dứt": 5359,
      "pac": 5360,
      "tị": 5361,
      "zhe": 5362,
      "chìm": 5363,
      "trốn": 5364,
      "ald": 5365,
      "heo": 5366,
      "heat": 5367,
      "metal": 5368,
      "amy": 5369,
      "khoan": 5370,
      "creation": 5371,
      "lesson": 5372,
      "phiền": 5373,
      "facts": 5374,
      "entirely": 5375,
      "statistics": 5376,
      "promise": 5377,
      "benefits": 5378,
      "26": 5379,
      "cất": 5380,
      "hàn": 5381,
      "nations": 5382,
      "pes": 5383,
      "ngọt": 5384,
      "estim": 5385,
      "taur": 5386,
      "contain": 5387,
      "ils": 5388,
      "compl": 5389,
      "restaur": 5390,
      "brown": 5391,
      "carol": 5392,
      "differently": 5393,
      "corner": 5394,
      "matters": 5395,
      "lãm": 5396,
      "easily": 5397,
      "hàm": 5398,
      "fighting": 5399,
      "rapid": 5400,
      "benefit": 5401,
      "require": 5402,
      "correct": 5403,
      "enormous": 5404,
      "dư": 5405,
      "dược": 5406,
      "gõ": 5407,
      "chic": 5408,
      "chain": 5409,
      "gián": 5410,
      "sters": 5411,
      "radi": 5412,
      "buôn": 5413,
      "peter": 5414,
      "myster": 5415,
      "thuế": 5416,
      "ela": 5417,
      "background": 5418,
      "events": 5419,
      "equal": 5420,
      "professor": 5421,
      "argument": 5422,
      "manhattan": 5423,
      "angeles": 5424,
      "atmosphere": 5425,
      "cow": 5426,
      "ystem": 5427,
      "đực": 5428,
      "ened": 5429,
      "apo": 5430,
      "mel": 5431,
      "ceive": 5432,
      "sung": 5433,
      "ender": 5434,
      "pressure": 5435,
      "males": 5436,
      "researchers": 5437,
      "describe": 5438,
      "relev": 5439,
      "smell": 5440,
      "infrastructure": 5441,
      "abu": 5442,
      "due": 5443,
      "egg": 5444,
      "mệnh": 5445,
      "thăng": 5446,
      "aris": 5447,
      "accoun": 5448,
      "ider": 5449,
      "tumor": 5450,
      "motor": 5451,
      "worldwide": 5452,
      "poe": 5453,
      "2005": 5454,
      "voices": 5455,
      "prior": 5456,
      "photos": 5457,
      "practic": 5458,
      "deeply": 5459,
      "definition": 5460,
      "daily": 5461,
      "ecosystem": 5462,
      "zheimer": 5463,
      "95": 5464,
      "bla": 5465,
      "eco": 5466,
      "hố": 5467,
      "iers": 5468,
      "som": 5469,
      "sàn": 5470,
      "sữa": 5471,
      "rew": 5472,
      "trục": 5473,
      "alzheimer": 5474,
      "esome": 5475,
      "mum": 5476,
      "agers": 5477,
      "itely": 5478,
      "symp": 5479,
      "colum": 5480,
      "compared": 5481,
      "ysis": 5482,
      "amazon": 5483,
      "explor": 5484,
      "dreams": 5485,
      "landscape": 5486,
      "faith": 5487,
      "fascinating": 5488,
      "demonstr": 5489,
      "responsibility": 5490,
      "according": 5491,
      "bùng": 5492,
      "dáng": 5493,
      "hans": 5494,
      "ợn": 5495,
      "thổi": 5496,
      "reward": 5497,
      "invisible": 5498,
      "trưa": 5499,
      "arms": 5500,
      "ida": 5501,
      "golf": 5502,
      "terror": 5503,
      "emic": 5504,
      "childhood": 5505,
      "limited": 5506,
      "awesome": 5507,
      "shoes": 5508,
      "keeping": 5509,
      "typical": 5510,
      "click": 5511,
      "european": 5512,
      "marketing": 5513,
      "cúm": 5514,
      "strength": 5515,
      "suffering": 5516,
      "received": 5517,
      "bếp": 5518,
      "cấm": 5519,
      "pun": 5520,
      "rist": 5521,
      "rét": 5522,
      "tch": 5523,
      "khỉ": 5524,
      "làn": 5525,
      "habit": 5526,
      "teles": 5527,
      "letter": 5528,
      "partners": 5529,
      "finished": 5530,
      "arent": 5531,
      "biological": 5532,
      "neuros": 5533,
      "palestin": 5534,
      "bụi": 5535,
      "adults": 5536,
      "distance": 5537,
      "250": 5538,
      "bận": 5539,
      "fal": 5540,
      "han": 5541,
      "ji": 5542,
      "lõi": 5543,
      "rational": 5544,
      "sơn": 5545,
      "tươi": 5546,
      "xí": 5547,
      "cher": 5548,
      "apers": 5549,
      "aria": 5550,
      "wea": 5551,
      "meat": 5552,
      "dol": 5553,
      "muỗi": 5554,
      "chip": 5555,
      "interaction": 5556,
      "shouldn": 5557,
      "visit": 5558,
      "designer": 5559,
      "breath": 5560,
      "prize": 5561,
      "illness": 5562,
      "discovery": 5563,
      "xinh": 5564,
      "advantage": 5565,
      "diction": 5566,
      "raised": 5567,
      "remote": 5568,
      "negative": 5569,
      "accident": 5570,
      "department": 5571,
      "bos": 5572,
      "bost": 5573,
      "fis": 5574,
      "fol": 5575,
      "hig": 5576,
      "spl": 5577,
      "giant": 5578,
      "liều": 5579,
      "ads": 5580,
      "users": 5581,
      "covered": 5582,
      "offer": 5583,
      "virtu": 5584,
      "virtual": 5585,
      "organic": 5586,
      "master": 5587,
      "paint": 5588,
      "channel": 5589,
      "drawing": 5590,
      "japanese": 5591,
      "ultimately": 5592,
      "employe": 5593,
      "boston": 5594,
      "bai": 5595,
      "dum": 5596,
      "jim": 5597,
      "mt": 5598,
      "pair": 5599,
      "tắm": 5600,
      "ếch": 5601,
      "ngắm": 5602,
      "thẻ": 5603,
      "istry": 5604,
      "quest": 5605,
      "ori": 5606,
      "arctic": 5607,
      "bell": 5608,
      "ượn": 5609,
      "coal": 5610,
      "proud": 5611,
      "genome": 5612,
      "epid": 5613,
      "1970": 5614,
      "vua": 5615,
      "seemed": 5616,
      "figured": 5617,
      "cognitive": 5618,
      "strategy": 5619,
      "houses": 5620,
      "australia": 5621,
      "migr": 5622,
      "destroy": 5623,
      "chicago": 5624,
      "bong": 5625,
      "bright": 5626,
      "nảy": 5627,
      "quát": 5628,
      "bear": 5629,
      "rau": 5630,
      "nàng": 5631,
      "creatures": 5632,
      "formed": 5633,
      "married": 5634,
      "dinner": 5635,
      "illustr": 5636,
      "universal": 5637,
      "markets": 5638,
      "insects": 5639,
      "silicon": 5640,
      "cưới": 5641,
      "fresh": 5642,
      "gri": 5643,
      "hate": 5644,
      "lường": 5645,
      "mouse": 5646,
      "sưu": 5647,
      "tướng": 5648,
      "ộm": 5649,
      "chìa": 5650,
      "attemp": 5651,
      "trượt": 5652,
      "ening": 5653,
      "phì": 5654,
      "phú": 5655,
      "quote": 5656,
      "tuý": 5657,
      "depression": 5658,
      "moves": 5659,
      "odes": 5660,
      "stuck": 5661,
      "bling": 5662,
      "compare": 5663,
      "matically": 5664,
      "farmers": 5665,
      "holding": 5666,
      "bomb": 5667,
      "perfectly": 5668,
      "affect": 5669,
      "hidden": 5670,
      "democratic": 5671,
      "volunte": 5672,
      "cac": 5673,
      "hat": 5674,
      "lông": 5675,
      "lướt": 5676,
      "mess": 5677,
      "nốt": 5678,
      "tủ": 5679,
      "uary": 5680,
      "qual": 5681,
      "tains": 5682,
      "soph": 5683,
      "diet": 5684,
      "fell": 5685,
      "mod": 5686,
      "command": 5687,
      "managed": 5688,
      "erson": 5689,
      "appreci": 5690,
      "thịnh": 5691,
      "swed": 5692,
      "latin": 5693,
      "artif": 5694,
      "sequence": 5695,
      "sequences": 5696,
      "dimensional": 5697,
      "magazine": 5698,
      "metaphor": 5699,
      "tremendous": 5700,
      "fif": 5701,
      "kne": 5702,
      "ls": 5703,
      "thính": 5704,
      "thiệt": 5705,
      "thám": 5706,
      "nhắm": 5707,
      "recon": 5708,
      "tori": 5709,
      "khôn": 5710,
      "lee": 5711,
      "versus": 5712,
      "willi": 5713,
      "thua": 5714,
      "everyday": 5715,
      "strain": 5716,
      "previ": 5717,
      "seri": 5718,
      "capable": 5719,
      "calls": 5720,
      "cript": 5721,
      "equip": 5722,
      "gather": 5723,
      "tempor": 5724,
      "investment": 5725,
      "necessarily": 5726,
      "tribute": 5727,
      "failed": 5728,
      "incenti": 5729,
      "commercial": 5730,
      "william": 5731,
      "29": 5732,
      "ey": 5733,
      "egy": 5734,
      "flight": 5735,
      "fying": 5736,
      "gấu": 5737,
      "rãi": 5738,
      "sco": 5739,
      "shad": 5740,
      "scul": 5741,
      "sites": 5742,
      "ngập": 5743,
      "thùng": 5744,
      "inch": 5745,
      "giam": 5746,
      "weak": 5747,
      "concentr": 5748,
      "tune": 5749,
      "plus": 5750,
      "whenever": 5751,
      "thinks": 5752,
      "experts": 5753,
      "names": 5754,
      "leads": 5755,
      "billions": 5756,
      "fairly": 5757,
      "dãy": 5758,
      "investi": 5759,
      "hồng": 5760,
      "lor": 5761,
      "nở": 5762,
      "snow": 5763,
      "nhẫn": 5764,
      "trum": 5765,
      "toả": 5766,
      "quãng": 5767,
      "section": 5768,
      "user": 5769,
      "phái": 5770,
      "shir": 5771,
      "desire": 5772,
      "surge": 5773,
      "morrow": 5774,
      "valent": 5775,
      "gged": 5776,
      "easier": 5777,
      "filled": 5778,
      "languages": 5779,
      "specif": 5780,
      "trained": 5781,
      "possibility": 5782,
      "increasingly": 5783,
      "clock": 5784,
      "anthro": 5785,
      "rwanda": 5786,
      "33": 5787,
      "ngốc": 5788,
      "khớp": 5789,
      "lets": 5790,
      "accept": 5791,
      "otherwise": 5792,
      "izon": 5793,
      "precise": 5794,
      "studied": 5795,
      "blow": 5796,
      "planning": 5797,
      "transition": 5798,
      "rooms": 5799,
      "heads": 5800,
      "leader": 5801,
      "businesses": 5802,
      "placed": 5803,
      "clip": 5804,
      "kín": 5805,
      "sister": 5806,
      "homes": 5807,
      "unex": 5808,
      "jazz": 5809,
      "equipment": 5810,
      "28": 5811,
      "dám": 5812,
      "flies": 5813,
      "gin": 5814,
      "vas": 5815,
      "thri": 5816,
      "châm": 5817,
      "liver": 5818,
      "liked": 5819,
      "actor": 5820,
      "cons": 5821,
      "ops": 5822,
      "opin": 5823,
      "notion": 5824,
      "puts": 5825,
      "ladies": 5826,
      "helps": 5827,
      "england": 5828,
      "economics": 5829,
      "watched": 5830,
      "element": 5831,
      "lady": 5832,
      "gabby": 5833,
      "normally": 5834,
      "marriage": 5835,
      "bơ": 5836,
      "cừ": 5837,
      "eper": 5838,
      "mười": 5839,
      "nick": 5840,
      "ping": 5841,
      "xóm": 5842,
      "tomorrow": 5843,
      "chúc": 5844,
      "beach": 5845,
      "soli": 5846,
      "define": 5847,
      "cuộn": 5848,
      "grass": 5849,
      "cents": 5850,
      "letters": 5851,
      "196": 5852,
      "expert": 5853,
      "piano": 5854,
      "2006": 5855,
      "charge": 5856,
      "factory": 5857,
      "fiction": 5858,
      "collect": 5859,
      "steps": 5860,
      "appropri": 5861,
      "origin": 5862,
      "feedback": 5863,
      "honor": 5864,
      "leaving": 5865,
      "wearing": 5866,
      "influence": 5867,
      "efficient": 5868,
      "brilliant": 5869,
      "cưỡng": 5870,
      "dắt": 5871,
      "rung": 5872,
      "sate": 5873,
      "trà": 5874,
      "phạt": 5875,
      "vere": 5876,
      "extin": 5877,
      "essential": 5878,
      "shut": 5879,
      "mira": 5880,
      "apping": 5881,
      "20th": 5882,
      "presents": 5883,
      "invited": 5884,
      "farm": 5885,
      "opened": 5886,
      "succeed": 5887,
      "kilome": 5888,
      "spirit": 5889,
      "neuro": 5890,
      "struggle": 5891,
      "radical": 5892,
      "bird": 5893,
      "cậy": 5894,
      "jes": 5895,
      "nắng": 5896,
      "scare": 5897,
      "nhiếp": 5898,
      "nhãn": 5899,
      "ination": 5900,
      "initi": 5901,
      "truc": 5902,
      "aly": 5903,
      "convention": 5904,
      "degree": 5905,
      "rio": 5906,
      "ướp": 5907,
      "coca": 5908,
      "grant": 5909,
      "tuyển": 5910,
      "1960": 5911,
      "asks": 5912,
      "evol": 5913,
      "generate": 5914,
      "electrical": 5915,
      "followed": 5916,
      "cutting": 5917,
      "chemistry": 5918,
      "losing": 5919,
      "planets": 5920,
      "astron": 5921,
      "hầm": 5922,
      "lát": 5923,
      "mạn": 5924,
      "nô": 5925,
      "tông": 5926,
      "tháo": 5927,
      "chà": 5928,
      "toi": 5929,
      "osau": 5930,
      "ota": 5931,
      "arts": 5932,
      "argue": 5933,
      "weird": 5934,
      "ranh": 5935,
      "accur": 5936,
      "ented": 5937,
      "decl": 5938,
      "dia": 5939,
      "expression": 5940,
      "hill": 5941,
      "2011": 5942,
      "surprise": 5943,
      "hypo": 5944,
      "craft": 5945,
      "opening": 5946,
      "horri": 5947,
      "origami": 5948,
      "resource": 5949,
      "circum": 5950,
      "separate": 5951,
      "relevant": 5952,
      "higgs": 5953,
      "seriously": 5954,
      "satell": 5955,
      "gand": 5956,
      "ku": 5957,
      "nai": 5958,
      "nose": 5959,
      "rural": 5960,
      "sn": 5961,
      "vây": 5962,
      "khơi": 5963,
      "oran": 5964,
      "ark": 5965,
      "điêu": 5966,
      "ables": 5967,
      "sugar": 5968,
      "viet": 5969,
      "indic": 5970,
      "noise": 5971,
      "hệt": 5972,
      "cortex": 5973,
      "highest": 5974,
      "airplane": 5975,
      "experienced": 5976,
      "subst": 5977,
      "đuôi": 5978,
      "damage": 5979,
      "battle": 5980,
      "entertain": 5981,
      "mortality": 5982,
      "cred": 5983,
      "nọ": 5984,
      "vở": 5985,
      "refle": 5986,
      "inner": 5987,
      "isol": 5988,
      "bubble": 5989,
      "lection": 5990,
      "setting": 5991,
      "begins": 5992,
      "sending": 5993,
      "survival": 5994,
      "nano": 5995,
      "surprised": 5996,
      "predict": 5997,
      "soldiers": 5998,
      "minister": 5999,
      "professional": 6000,
      "sculp": 6001,
      "bê": 6002,
      "gall": 6003,
      "hòn": 6004,
      "jen": 6005,
      "lò": 6006,
      "mitted": 6007,
      "đồi": 6008,
      "đâm": 6009,
      "chước": 6010,
      "ank": 6011,
      "theater": 6012,
      "tos": 6013,
      "khan": 6014,
      "orts": 6015,
      "army": 6016,
      "edi": 6017,
      "accep": 6018,
      "concep": 6019,
      "root": 6020,
      "peak": 6021,
      "gee": 6022,
      "ular": 6023,
      "stimul": 6024,
      "2004": 6025,
      "fourth": 6026,
      "malaria": 6027,
      "organized": 6028,
      "driven": 6029,
      "appeared": 6030,
      "violent": 6031,
      "currently": 6032,
      "location": 6033,
      "constantly": 6034,
      "bilities": 6035,
      "associated": 6036,
      "competition": 6037,
      "church": 6038,
      "witness": 6039,
      "bớt": 6040,
      "rat": 6041,
      "wing": 6042,
      "thô": 6043,
      "nhở": 6044,
      "christ": 6045,
      "review": 6046,
      "acters": 6047,
      "nghịch": 6048,
      "iron": 6049,
      "perception": 6050,
      "ressive": 6051,
      "thuẫn": 6052,
      "igno": 6053,
      "pole": 6054,
      "195": 6055,
      "grab": 6056,
      "miss": 6057,
      "characters": 6058,
      "facing": 6059,
      "polar": 6060,
      "hopefully": 6061,
      "engineers": 6062,
      "elements": 6063,
      "congo": 6064,
      "safety": 6065,
      "concerned": 6066,
      "organs": 6067,
      "phenomenon": 6068,
      "weapons": 6069,
      "1000": 6070,
      "bút": 6071,
      "cởi": 6072,
      "dress": 6073,
      "fab": 6074,
      "glu": 6075,
      "gánh": 6076,
      "iel": 6077,
      "lùi": 6078,
      "mệt": 6079,
      "ns": 6080,
      "ooh": 6081,
      "thy": 6082,
      "chở": 6083,
      "gift": 6084,
      "tam": 6085,
      "bust": 6086,
      "enty": 6087,
      "holes": 6088,
      "celer": 6089,
      "muộn": 6090,
      "advert": 6091,
      "killing": 6092,
      "grid": 6093,
      "hãng": 6094,
      "phili": 6095,
      "2003": 6096,
      "shame": 6097,
      "believed": 6098,
      "tony": 6099,
      "burg": 6100,
      "shapes": 6101,
      "sides": 6102,
      "analysis": 6103,
      "described": 6104,
      "collection": 6105,
      "multiple": 6106,
      "roman": 6107,
      "dimensions": 6108,
      "hacker": 6109,
      "suggests": 6110,
      "800": 6111,
      "dot": 6112,
      "gul": 6113,
      "mấu": 6114,
      "piz": 6115,
      "sứ": 6116,
      "tons": 6117,
      "zu": 6118,
      "ngực": 6119,
      "chục": 6120,
      "refu": 6121,
      "acceler": 6122,
      "forced": 6123,
      "construction": 6124,
      "mush": 6125,
      "advent": 6126,
      "unless": 6127,
      "chín": 6128,
      "treated": 6129,
      "musical": 6130,
      "operating": 6131,
      "solved": 6132,
      "identify": 6133,
      "pounds": 6134,
      "chicken": 6135,
      "weather": 6136,
      "specifically": 6137,
      "bọ": 6138,
      "lou": 6139,
      "lạm": 6140,
      "nợ": 6141,
      "uk": 6142,
      "khúc": 6143,
      "altern": 6144,
      "belong": 6145,
      "libr": 6146,
      "abilities": 6147,
      "exhi": 6148,
      "lum": 6149,
      "tali": 6150,
      "bron": 6151,
      "vịnh": 6152,
      "obsess": 6153,
      "finish": 6154,
      "player": 6155,
      "portion": 6156,
      "harder": 6157,
      "flat": 6158,
      "horse": 6159,
      "digit": 6160,
      "intelligent": 6161,
      "leaves": 6162,
      "scene": 6163,
      "cartoon": 6164,
      "aristo": 6165,
      "artificial": 6166,
      "48": 6167,
      "km": 6168,
      "múa": 6169,
      "ology": 6170,
      "rose": 6171,
      "sir": 6172,
      "yem": 6173,
      "thôn": 6174,
      "ancy": 6175,
      "quad": 6176,
      "oft": 6177,
      "phẳng": 6178,
      "liqu": 6179,
      "rob": 6180,
      "mut": 6181,
      "mail": 6182,
      "maker": 6183,
      "proje": 6184,
      "howard": 6185,
      "igning": 6186,
      "whereas": 6187,
      "evil": 6188,
      "flor": 6189,
      "mosqui": 6190,
      "critic": 6191,
      "slowly": 6192,
      "employees": 6193,
      "unexpected": 6194,
      "pir": 6195,
      "pig": 6196,
      "yer": 6197,
      "đới": 6198,
      "ươn": 6199,
      "thâm": 6200,
      "trấn": 6201,
      "osity": 6202,
      "esta": 6203,
      "nghiện": 6204,
      "comb": 6205,
      "sốc": 6206,
      "hasn": 6207,
      "distribution": 6208,
      "cultures": 6209,
      "1950": 6210,
      "1980": 6211,
      "tens": 6212,
      "lication": 6213,
      "videos": 6214,
      "transformation": 6215,
      "generations": 6216,
      "warm": 6217,
      "productive": 6218,
      "election": 6219,
      "wondering": 6220,
      "paying": 6221,
      "testing": 6222,
      "molecular": 6223,
      "satis": 6224,
      "closed": 6225,
      "passionate": 6226,
      "henry": 6227,
      "intellec": 6228,
      "valuable": 6229,
      "toilet": 6230,
      "yemen": 6231,
      "dots": 6232,
      "kịp": 6233,
      "koran": 6234,
      "nit": 6235,
      "vải": 6236,
      "ware": 6237,
      "zan": 6238,
      "khôi": 6239,
      "alpha": 6240,
      "archi": 6241,
      "whom": 6242,
      "meter": 6243,
      "idents": 6244,
      "lock": 6245,
      "abra": 6246,
      "roof": 6247,
      "unk": 6248,
      "humor": 6249,
      "acting": 6250,
      "organisms": 6251,
      "controlled": 6252,
      "caused": 6253,
      "empty": 6254,
      "consumption": 6255,
      "property": 6256,
      "hurt": 6257,
      "details": 6258,
      "crowd": 6259,
      "gender": 6260,
      "lưỡng": 6261,
      "mỏi": 6262,
      "rễ": 6263,
      "atlan": 6264,
      "ita": 6265,
      "tie": 6266,
      "stup": 6267,
      "meta": 6268,
      "conside": 6269,
      "dogs": 6270,
      "emis": 6271,
      "frustr": 6272,
      "cock": 6273,
      "ngoan": 6274,
      "eval": 6275,
      "german": 6276,
      "duyệt": 6277,
      "flower": 6278,
      "switch": 6279,
      "solving": 6280,
      "fields": 6281,
      "brian": 6282,
      "forests": 6283,
      "doub": 6284,
      "tributed": 6285,
      "clinical": 6286,
      "pleasure": 6287,
      "management": 6288,
      "religious": 6289,
      "penguins": 6290,
      "olymp": 6291,
      "cacbon": 6292,
      "pizza": 6293,
      "considered": 6294,
      "85": 6295,
      "bare": 6296,
      "cối": 6297,
      "mâu": 6298,
      "motion": 6299,
      "ride": 6300,
      "ráp": 6301,
      "rush": 6302,
      "ud": 6303,
      "wart": 6304,
      "nhặt": 6305,
      "reti": 6306,
      "trân": 6307,
      "khiếm": 6308,
      "itals": 6309,
      "article": 6310,
      "soil": 6311,
      "negot": 6312,
      "destruc": 6313,
      "bike": 6314,
      "singing": 6315,
      "guar": 6316,
      "cave": 6317,
      "awful": 6318,
      "engineer": 6319,
      "cambridge": 6320,
      "circle": 6321,
      "sharks": 6322,
      "walls": 6323,
      "sentence": 6324,
      "affected": 6325,
      "graduate": 6326,
      "symbol": 6327,
      "sweet": 6328,
      "tasman": 6329,
      "liquid": 6330,
      "negoti": 6331,
      "32": 6332,
      "700": 6333,
      "fg": 6334,
      "hưu": 6335,
      "jose": 6336,
      "ption": 6337,
      "regre": 6338,
      "entrop": 6339,
      "phr": 6340,
      "consequences": 6341,
      "nets": 6342,
      "interface": 6343,
      "writer": 6344,
      "partner": 6345,
      "ignor": 6346,
      "plays": 6347,
      "feelings": 6348,
      "patent": 6349,
      "limit": 6350,
      "driver": 6351,
      "producing": 6352,
      "caught": 6353,
      "defined": 6354,
      "definitely": 6355,
      "photographs": 6356,
      "stupid": 6357,
      "120": 6358,
      "cod": 6359,
      "tall": 6360,
      "winter": 6361,
      "wave": 6362,
      "khẳng": 6363,
      "enem": 6364,
      "ala": 6365,
      "chocol": 6366,
      "concl": 6367,
      "neath": 6368,
      "cuồng": 6369,
      "dial": 6370,
      "union": 6371,
      "makers": 6372,
      "vibr": 6373,
      "hadn": 6374,
      "spoke": 6375,
      "crete": 6376,
      "disci": 6377,
      "bran": 6378,
      "underneath": 6379,
      "treo": 6380,
      "northern": 6381,
      "itual": 6382,
      "connections": 6383,
      "signal": 6384,
      "grandmother": 6385,
      "printing": 6386,
      "battery": 6387,
      "institution": 6388,
      "pollen": 6389,
      "contact": 6390,
      "curious": 6391,
      "civilization": 6392,
      "scratch": 6393,
      "garden": 6394,
      "dải": 6395,
      "io": 6396,
      "lật": 6397,
      "mảng": 6398,
      "pages": 6399,
      "tần": 6400,
      "đố": 6401,
      "insur": 6402,
      "accu": 6403,
      "mày": 6404,
      "expres": 6405,
      "express": 6406,
      "span": 6407,
      "địch": 6408,
      "hua": 6409,
      "dish": 6410,
      "bath": 6411,
      "khói": 6412,
      "shake": 6413,
      "designers": 6414,
      "valley": 6415,
      "calling": 6416,
      "warming": 6417,
      "oxford": 6418,
      "confidence": 6419,
      "empathy": 6420,
      "laser": 6421,
      "infected": 6422,
      "vehicle": 6423,
      "stanford": 6424,
      "discipl": 6425,
      "hẹp": 6426,
      "ium": 6427,
      "rắn": 6428,
      "sắt": 6429,
      "vươn": 6430,
      "ộp": 6431,
      "thir": 6432,
      "reaction": 6433,
      "isa": 6434,
      "khuyết": 6435,
      "encourage": 6436,
      "deeper": 6437,
      "magn": 6438,
      "rescu": 6439,
      "boat": 6440,
      "distin": 6441,
      "brow": 6442,
      "pregn": 6443,
      "trip": 6444,
      "colon": 6445,
      "phím": 6446,
      "blocks": 6447,
      "politicians": 6448,
      "grandfather": 6449,
      "ghana": 6450,
      "silence": 6451,
      "pollu": 6452,
      "mountains": 6453,
      "practical": 6454,
      "adult": 6455,
      "microsoft": 6456,
      "convinced": 6457,
      "adapt": 6458,
      "algorithms": 6459,
      "cựu": 6460,
      "poetry": 6461,
      "gối": 6462,
      "hr": 6463,
      "maps": 6464,
      "pit": 6465,
      "rửa": 6466,
      "rhy": 6467,
      "đẻ": 6468,
      "thằng": 6469,
      "redi": 6470,
      "invention": 6471,
      "ingredi": 6472,
      "aret": 6473,
      "màng": 6474,
      "dir": 6475,
      "simul": 6476,
      "notes": 6477,
      "prove": 6478,
      "expected": 6479,
      "stood": 6480,
      "mini": 6481,
      "fewer": 6482,
      "staff": 6483,
      "brief": 6484,
      "shark": 6485,
      "absolute": 6486,
      "released": 6487,
      "psychology": 6488,
      "debate": 6489,
      "narrative": 6490,
      "credit": 6491,
      "cướp": 6492,
      "dạo": 6493,
      "iest": 6494,
      "pow": 6495,
      "rome": 6496,
      "stor": 6497,
      "wars": 6498,
      "đáo": 6499,
      "chel": 6500,
      "anxi": 6501,
      "tables": 6502,
      "heav": 6503,
      "divid": 6504,
      "sages": 6505,
      "embar": 6506,
      "extend": 6507,
      "manip": 6508,
      "ideal": 6509,
      "poly": 6510,
      "clay": 6511,
      "importance": 6512,
      "personally": 6513,
      "nerv": 6514,
      "yester": 6515,
      "protection": 6516,
      "signed": 6517,
      "quiet": 6518,
      "flash": 6519,
      "uganda": 6520,
      "typically": 6521,
      "21st": 6522,
      "awareness": 6523,
      "principle": 6524,
      "arrived": 6525,
      "đàm": 6526,
      "independent": 6527,
      "equivalent": 6528,
      "solid": 6529,
      "entropy": 6530,
      "manipul": 6531,
      "jos": 6532,
      "vé": 6533,
      "vương": 6534,
      "lego": 6535,
      "length": 6536,
      "llo": 6537,
      "bum": 6538,
      "auton": 6539,
      "saved": 6540,
      "adic": 6541,
      "plate": 6542,
      "ateful": 6543,
      "khoái": 6544,
      "bob": 6545,
      "powered": 6546,
      "vessel": 6547,
      "syl": 6548,
      "desk": 6549,
      "đoan": 6550,
      "prefer": 6551,
      "mary": 6552,
      "observ": 6553,
      "nie": 6554,
      "cola": 6555,
      "players": 6556,
      "thoughts": 6557,
      "engaged": 6558,
      "physic": 6559,
      "spectrum": 6560,
      "occas": 6561,
      "maintain": 6562,
      "regard": 6563,
      "prince": 6564,
      "collap": 6565,
      "sources": 6566,
      "picked": 6567,
      "hospitals": 6568,
      "kyo": 6569,
      "launched": 6570,
      "techniques": 6571,
      "dynamic": 6572,
      "relatively": 6573,
      "gentlemen": 6574,
      "folks": 6575,
      "investig": 6576,
      "cừu": 6577,
      "hypothe": 6578,
      "heavy": 6579,
      "autonom": 6580,
      "cạn": 6581,
      "dâm": 6582,
      "dẻo": 6583,
      "kno": 6584,
      "lợn": 6585,
      "mồi": 6586,
      "tles": 6587,
      "vỗ": 6588,
      "òm": 6589,
      "ằn": 6590,
      "abstr": 6591,
      "boom": 6592,
      "lifetime": 6593,
      "stock": 6594,
      "aked": 6595,
      "gravity": 6596,
      "lessons": 6597,
      "breaking": 6598,
      "eastern": 6599,
      "brook": 6600,
      "director": 6601,
      "eleph": 6602,
      "congress": 6603,
      "emerging": 6604,
      "budget": 6605,
      "launch": 6606,
      "false": 6607,
      "circumst": 6608,
      "taliban": 6609,
      "chocolate": 6610,
      "yesterday": 6611,
      "sạn": 6612,
      "ske": 6613,
      "wine": 6614,
      "zone": 6615,
      "toward": 6616,
      "itarian": 6617,
      "eda": 6618,
      "sees": 6619,
      "selling": 6620,
      "rare": 6621,
      "hol": 6622,
      "roy": 6623,
      "dian": 6624,
      "tee": 6625,
      "worried": 6626,
      "thur": 6627,
      "pray": 6628,
      "poem": 6629,
      "aston": 6630,
      "strang": 6631,
      "trials": 6632,
      "risks": 6633,
      "lệch": 6634,
      "processes": 6635,
      "milk": 6636,
      "oxide": 6637,
      "buying": 6638,
      "kore": 6639,
      "stronger": 6640,
      "tracking": 6641,
      "layer": 6642,
      "khuynh": 6643,
      "effectively": 6644,
      "brothers": 6645,
      "technical": 6646,
      "newspaper": 6647,
      "dolph": 6648,
      "consist": 6649,
      "emissions": 6650,
      "nervous": 6651,
      "cắm": 6652,
      "dọn": 6653,
      "garet": 6654,
      "kins": 6655,
      "lận": 6656,
      "pam": 6657,
      "vẹn": 6658,
      "đạn": 6659,
      "chả": 6660,
      "seng": 6661,
      "raw": 6662,
      "neander": 6663,
      "magi": 6664,
      "sports": 6665,
      "tựa": 6666,
      "former": 6667,
      "goods": 6668,
      "preser": 6669,
      "served": 6670,
      "2001": 6671,
      "cafe": 6672,
      "simpl": 6673,
      "sample": 6674,
      "achie": 6675,
      "huyền": 6676,
      "requires": 6677,
      "birthday": 6678,
      "titles": 6679,
      "galaxy": 6680,
      "exercise": 6681,
      "victims": 6682,
      "telescope": 6683,
      "bơm": 6684,
      "gulf": 6685,
      "36": 6686,
      "55": 6687,
      "bấy": 6688,
      "bắp": 6689,
      "bỗng": 6690,
      "pup": 6691,
      "đạc": 6692,
      "anony": 6693,
      "topic": 6694,
      "ories": 6695,
      "bucks": 6696,
      "khiêu": 6697,
      "reser": 6698,
      "quyên": 6699,
      "shel": 6700,
      "designing": 6701,
      "tics": 6702,
      "virgin": 6703,
      "lester": 6704,
      "status": 6705,
      "memories": 6706,
      "axis": 6707,
      "institute": 6708,
      "kẹo": 6709,
      "vulnerable": 6710,
      "roughly": 6711,
      "epidemic": 6712,
      "florida": 6713,
      "bors": 6714,
      "cắp": 6715,
      "fred": 6716,
      "hm": 6717,
      "lờ": 6718,
      "lũng": 6719,
      "vĩnh": 6720,
      "đền": 6721,
      "eral": 6722,
      "quit": 6723,
      "gies": 6724,
      "till": 6725,
      "stal": 6726,
      "icel": 6727,
      "height": 6728,
      "holly": 6729,
      "tuân": 6730,
      "goals": 6731,
      "unlike": 6732,
      "grateful": 6733,
      "jeff": 6734,
      "lessly": 6735,
      "bottle": 6736,
      "fund": 6737,
      "germany": 6738,
      "navi": 6739,
      "mistakes": 6740,
      "signals": 6741,
      "windows": 6742,
      "amounts": 6743,
      "existing": 6744,
      "polio": 6745,
      "release": 6746,
      "constitu": 6747,
      "smile": 6748,
      "laboratory": 6749,
      "introduced": 6750,
      "31": 6751,
      "bọc": 6752,
      "cương": 6753,
      "ecu": 6754,
      "kg": 6755,
      "kiệt": 6756,
      "lấp": 6757,
      "rates": 6758,
      "én": 6759,
      "nhàng": 6760,
      "error": 6761,
      "buýt": 6762,
      "angle": 6763,
      "tum": 6764,
      "unit": 6765,
      "exists": 6766,
      "extract": 6767,
      "cious": 6768,
      "thung": 6769,
      "string": 6770,
      "nik": 6771,
      "steel": 6772,
      "court": 6773,
      "contro": 6774,
      "added": 6775,
      "waves": 6776,
      "proteins": 6777,
      "daniel": 6778,
      "falling": 6779,
      "texas": 6780,
      "constant": 6781,
      "authority": 6782,
      "introduce": 6783,
      "principles": 6784,
      "kẹt": 6785,
      "candid": 6786,
      "restaurant": 6787,
      "sophistic": 6788,
      "aristotle": 6789,
      "combine": 6790,
      "bách": 6791,
      "lạp": 6792,
      "mòn": 6793,
      "sity": 6794,
      "uit": 6795,
      "vang": 6796,
      "wed": 6797,
      "xô": 6798,
      "xám": 6799,
      "đai": 6800,
      "nhầm": 6801,
      "trau": 6802,
      "ales": 6803,
      "arthur": 6804,
      "giãn": 6805,
      "keys": 6806,
      "---": 6807,
      "movi": 6808,
      "percen": 6809,
      "mann": 6810,
      "boo": 6811,
      "bold": 6812,
      "pool": 6813,
      "finance": 6814,
      "charlie": 6815,
      "shock": 6816,
      "environments": 6817,
      "medium": 6818,
      "possibilities": 6819,
      "mechanical": 6820,
      "mathematics": 6821,
      "hydrogen": 6822,
      "finger": 6823,
      "intuitive": 6824,
      "sahara": 6825,
      "appropriate": 6826,
      "kilometers": 6827,
      "conventional": 6828,
      "alternative": 6829,
      "establ": 6830,
      "doubt": 6831,
      "cards": 6832,
      "dat": 6833,
      "kitch": 6834,
      "lind": 6835,
      "mồ": 6836,
      "nêu": 6837,
      "tt": 6838,
      "đỗ": 6839,
      "thắc": 6840,
      "thép": 6841,
      "chimp": 6842,
      "replace": 6843,
      "constru": 6844,
      "wired": 6845,
      "exchange": 6846,
      "plans": 6847,
      "spok": 6848,
      "cyber": 6849,
      "carefully": 6850,
      "animation": 6851,
      "wake": 6852,
      "dramatic": 6853,
      "explains": 6854,
      "satur": 6855,
      "ville": 6856,
      "participate": 6857,
      "desert": 6858,
      "platform": 6859,
      "therapy": 6860,
      "entrepreneurs": 6861,
      "agriculture": 6862,
      "knee": 6863,
      "scared": 6864,
      "cai": 6865,
      "gro": 6866,
      "mỉ": 6867,
      "nis": 6868,
      "rẽ": 6869,
      "twe": 6870,
      "vay": 6871,
      "ễu": 6872,
      "chăn": 6873,
      "attract": 6874,
      "inven": 6875,
      "trú": 6876,
      "osphere": 6877,
      "orbit": 6878,
      "ceo": 6879,
      "immu": 6880,
      "option": 6881,
      "comed": 6882,
      "worlds": 6883,
      "quake": 6884,
      "survey": 6885,
      "grace": 6886,
      "corn": 6887,
      "funding": 6888,
      "economies": 6889,
      "border": 6890,
      "factor": 6891,
      "harm": 6892,
      "depends": 6893,
      "dealing": 6894,
      "behavioral": 6895,
      "meaningful": 6896,
      "sensitive": 6897,
      "heroes": 6898,
      "reveal": 6899,
      "insulin": 6900,
      "lifesty": 6901,
      "opinion": 6902,
      "accurate": 6903,
      "bá": 6904,
      "dv": 6905,
      "dở": 6906,
      "jail": 6907,
      "lơ": 6908,
      "mọc": 6909,
      "mỏng": 6910,
      "vượng": 6911,
      "ngừa": 6912,
      "thus": 6913,
      "repor": 6914,
      "atr": 6915,
      "trật": 6916,
      "aland": 6917,
      "item": 6918,
      "pects": 6919,
      "extr": 6920,
      "ola": 6921,
      "shr": 6922,
      "inevit": 6923,
      "spin": 6924,
      "hum": 6925,
      "poo": 6926,
      "disappear": 6927,
      "monitor": 6928,
      "cyrus": 6929,
      "stein": 6930,
      "interests": 6931,
      "walks": 6932,
      "particles": 6933,
      "nutr": 6934,
      "subjects": 6935,
      "parent": 6936,
      "employ": 6937,
      "improvis": 6938,
      "architect": 6939,
      "sandwi": 6940,
      "fundamentally": 6941,
      "chemicals": 6942,
      "resistance": 6943,
      "mentioned": 6944,
      "announ": 6945,
      "components": 6946,
      "breathe": 6947,
      "sweden": 6948,
      "intellectual": 6949,
      "circumstances": 6950,
      "37": 6951,
      "cot": 6952,
      "dũng": 6953,
      "dốc": 6954,
      "fright": 6955,
      "hide": 6956,
      "kick": 6957,
      "lượt": 6958,
      "nát": 6959,
      "pink": 6960,
      "đợt": 6961,
      "chap": 6962,
      "chose": 6963,
      "atar": 6964,
      "khéo": 6965,
      "phy": 6966,
      "sets": 6967,
      "rocket": 6968,
      "unusual": 6969,
      "proof": 6970,
      "explan": 6971,
      "ified": 6972,
      "gray": 6973,
      "applied": 6974,
      "owners": 6975,
      "gency": 6976,
      "internal": 6977,
      "march": 6978,
      "obje": 6979,
      "2050": 6980,
      "gust": 6981,
      "capture": 6982,
      "voc": 6983,
      "muslim": 6984,
      "computing": 6985,
      "privi": 6986,
      "films": 6987,
      "dinosau": 6988,
      "continent": 6989,
      "appears": 6990,
      "innovative": 6991,
      "variety": 6992,
      "flowers": 6993,
      "britain": 6994,
      "carrying": 6995,
      "prosper": 6996,
      "defense": 6997,
      "swimming": 6998,
      "atoms": 6999,
      "scott": 7000,
      "instrument": 7001,
      "advice": 7002,
      "rapidly": 7003,
      "temporary": 7004,
      "occasion": 7005,
      "collapse": 7006,
      "movies": 7007,
      "bb": 7008,
      "ckets": 7009,
      "dur": 7010,
      "hôi": 7011,
      "sôi": 7012,
      "võ": 7013,
      "vation": 7014,
      "xim": 7015,
      "zes": 7016,
      "zim": 7017,
      "recy": 7018,
      "tories": 7019,
      "encoura": 7020,
      "phác": 7021,
      "asing": 7022,
      "lem": 7023,
      "veled": 7024,
      "lium": 7025,
      "abled": 7026,
      "tea": 7027,
      "thum": 7028,
      "whel": 7029,
      "disaster": 7030,
      "firm": 7031,
      "overwhel": 7032,
      "tension": 7033,
      "serving": 7034,
      "senses": 7035,
      "norden": 7036,
      "portra": 7037,
      "runs": 7038,
      "onesia": 7039,
      "ternal": 7040,
      "install": 7041,
      "soul": 7042,
      "mandela": 7043,
      "oceans": 7044,
      "skill": 7045,
      "primary": 7046,
      "joined": 7047,
      "logically": 7048,
      "philosophy": 7049,
      "journalist": 7050,
      "intense": 7051,
      "tape": 7052,
      "framework": 7053,
      "mirror": 7054,
      "prepared": 7055,
      "rhyth": 7056,
      "percentage": 7057,
      "38": 7058,
      "47": 7059,
      "bù": 7060,
      "bồ": 7061,
      "hạch": 7062,
      "lắc": 7063,
      "loud": 7064,
      "xôi": 7065,
      "ờng": 7066,
      "chợ": 7067,
      "reverse": 7068,
      "resili": 7069,
      "ini": 7070,
      "toy": 7071,
      "andrew": 7072,
      "sey": 7073,
      "vege": 7074,
      "hoài": 7075,
      "opard": 7076,
      "việt": 7077,
      "ression": 7078,
      "plement": 7079,
      "apparent": 7080,
      "centu": 7081,
      "lake": 7082,
      "poster": 7083,
      "thoái": 7084,
      "condu": 7085,
      "fake": 7086,
      "shakes": 7087,
      "wondered": 7088,
      "generally": 7089,
      "stable": 7090,
      "economists": 7091,
      "operate": 7092,
      "devil": 7093,
      "messages": 7094,
      "sunlight": 7095,
      "tested": 7096,
      "trừu": 7097,
      "boxes": 7098,
      "attacks": 7099,
      "soft": 7100,
      "increasing": 7101,
      "increased": 7102,
      "nén": 7103,
      "vaccines": 7104,
      "judge": 7105,
      "kitchen": 7106,
      "bìa": 7107,
      "mall": 7108,
      "mates": 7109,
      "nản": 7110,
      "xăng": 7111,
      "intim": 7112,
      "weigh": 7113,
      "authen": 7114,
      "concrete": 7115,
      "doors": 7116,
      "detro": 7117,
      "gore": 7118,
      "cere": 7119,
      "comment": 7120,
      "mile": 7121,
      "sheep": 7122,
      "izes": 7123,
      "clou": 7124,
      "centers": 7125,
      "biot": 7126,
      "crash": 7127,
      "stere": 7128,
      "hyper": 7129,
      "dense": 7130,
      "movements": 7131,
      "relations": 7132,
      "processing": 7133,
      "passwords": 7134,
      "barri": 7135,
      "southern": 7136,
      "holds": 7137,
      "teams": 7138,
      "roads": 7139,
      "consumer": 7140,
      "sustainability": 7141,
      "hunger": 7142,
      "advanced": 7143,
      "harvest": 7144,
      "cooking": 7145,
      "collaboration": 7146,
      "hoping": 7147,
      "watson": 7148,
      "transportation": 7149,
      "regions": 7150,
      "manufacturing": 7151,
      "embrace": 7152,
      "astronom": 7153,
      "destruction": 7154,
      "hollywood": 7155,
      "authentic": 7156,
      "detroit": 7157,
      "44": 7158,
      "dor": 7159,
      "dội": 7160,
      "rass": 7161,
      "rick": 7162,
      "volu": 7163,
      "wright": 7164,
      "yard": 7165,
      "ụng": 7166,
      "thầm": 7167,
      "infin": 7168,
      "phase": 7169,
      "tiễn": 7170,
      "severe": 7171,
      "lian": 7172,
      "loop": 7173,
      "wil": 7174,
      "teeth": 7175,
      "clar": 7176,
      "syria": 7177,
      "interactive": 7178,
      "stephen": 7179,
      "guide": 7180,
      "stair": 7181,
      "borders": 7182,
      "factors": 7183,
      "allowing": 7184,
      "flag": 7185,
      "tana": 7186,
      "operation": 7187,
      "literature": 7188,
      "rosling": 7189,
      "traveling": 7190,
      "discussion": 7191,
      "combination": 7192,
      "islamic": 7193,
      "pilot": 7194,
      "library": 7195,
      "centuries": 7196,
      "clouds": 7197,
      "cil": 7198,
      "cats": 7199,
      "gli": 7200,
      "gác": 7201,
      "jay": 7202,
      "kir": 7203,
      "mau": 7204,
      "nụ": 7205,
      "slu": 7206,
      "đẽ": 7207,
      "đan": 7208,
      "ẳm": 7209,
      "attr": 7210,
      "apore": 7211,
      "leon": 7212,
      "nghiệt": 7213,
      "constrain": 7214,
      "muối": 7215,
      "sian": 7216,
      "myth": 7217,
      "indonesia": 7218,
      "venue": 7219,
      "ansas": 7220,
      "applications": 7221,
      "interpret": 7222,
      "stands": 7223,
      "chua": 7224,
      "singapore": 7225,
      "facial": 7226,
      "password": 7227,
      "burger": 7228,
      "opera": 7229,
      "repair": 7230,
      "russia": 7231,
      "greenh": 7232,
      "conversations": 7233,
      "crimin": 7234,
      "convince": 7235,
      "vulnerability": 7236,
      "style": 7237,
      "sacri": 7238,
      "radiation": 7239,
      "xíu": 7240,
      "previous": 7241,
      "iceland": 7242,
      "hụt": 7243,
      "jar": 7244,
      "lúa": 7245,
      "oe": 7246,
      "ván": 7247,
      "xích": 7248,
      "chart": 7249,
      "ined": 7250,
      "trộm": 7251,
      "arrest": 7252,
      "phos": 7253,
      "beth": 7254,
      "accompl": 7255,
      "busy": 7256,
      "conven": 7257,
      "unknown": 7258,
      "mike": 7259,
      "para": 7260,
      "paring": 7261,
      "offers": 7262,
      "transplant": 7263,
      "contrast": 7264,
      "grapher": 7265,
      "tonight": 7266,
      "globe": 7267,
      "clever": 7268,
      "addic": 7269,
      "prime": 7270,
      "burgh": 7271,
      "burning": 7272,
      "ruồi": 7273,
      "cổng": 7274,
      "challenging": 7275,
      "equally": 7276,
      "behaviors": 7277,
      "cameras": 7278,
      "shaped": 7279,
      "stayed": 7280,
      "include": 7281,
      "neutr": 7282,
      "eggs": 7283,
      "jihad": 7284,
      "romantic": 7285,
      "bronx": 7286,
      "abraham": 7287,
      "sophisticated": 7288,
      "shakespe": 7289,
      "hir": 7290,
      "mim": 7291,
      "mate": 7292,
      "mộng": 7293,
      "mượn": 7294,
      "qa": 7295,
      "sô": 7296,
      "uel": 7297,
      "wound": 7298,
      "xưởng": 7299,
      "xướng": 7300,
      "yi": 7301,
      "thick": 7302,
      "thẳm": 7303,
      "nhện": 7304,
      "chron": 7305,
      "chrom": 7306,
      "represents": 7307,
      "inson": 7308,
      "trillion": 7309,
      "andon": 7310,
      "conver": 7311,
      "angry": 7312,
      "fears": 7313,
      "feren": 7314,
      "femin": 7315,
      "illegal": 7316,
      "proced": 7317,
      "kingdom": 7318,
      "distric": 7319,
      "berry": 7320,
      "desper": 7321,
      "parking": 7322,
      "interven": 7323,
      "mony": 7324,
      "19th": 7325,
      "controver": 7326,
      "healthcare": 7327,
      "tests": 7328,
      "earthquake": 7329,
      "club": 7330,
      "illusion": 7331,
      "dancing": 7332,
      "hotel": 7333,
      "samples": 7334,
      "nelson": 7335,
      "identical": 7336,
      "mechanism": 7337,
      "inspiration": 7338,
      "sympto": 7339,
      "fabric": 7340,
      "embarrass": 7341,
      "lifestyle": 7342,
      "nutrition": 7343,
      "bby": 7344,
      "cống": 7345,
      "cous": 7346,
      "hits": 7347,
      "hóc": 7348,
      "mươi": 7349,
      "nề": 7350,
      "oo": 7351,
      "súc": 7352,
      "uỷ": 7353,
      "theme": 7354,
      "rey": 7355,
      "islands": 7356,
      "asy": 7357,
      "giặt": 7358,
      "whist": 7359,
      "soạn": 7360,
      "ghters": 7361,
      "neo": 7362,
      "empower": 7363,
      "embed": 7364,
      "plain": 7365,
      "resto": 7366,
      "khoáng": 7367,
      "chile": 7368,
      "pure": 7369,
      "quyến": 7370,
      "pocket": 7371,
      "presence": 7372,
      "stewart": 7373,
      "vụn": 7374,
      "mistake": 7375,
      "natur": 7376,
      "zealand": 7377,
      "instin": 7378,
      "physically": 7379,
      "certainty": 7380,
      "collecting": 7381,
      "suppose": 7382,
      "mainly": 7383,
      "reaching": 7384,
      "viruses": 7385,
      "situations": 7386,
      "touched": 7387,
      "functional": 7388,
      "transformed": 7389,
      "dict": 7390,
      "criminal": 7391,
      "diagnosed": 7392,
      "corporate": 7393,
      "bicy": 7394,
      "carolina": 7395,
      "dictionary": 7396,
      "horrible": 7397,
      "satellite": 7398,
      "gandhi": 7399,
      "christmas": 7400,
      "pollution": 7401,
      "immune": 7402,
      "shakespeare": 7403,
      "bướ": 7404,
      "bage": 7405,
      "gũ": 7406,
      "rũ": 7407,
      "slo": 7408,
      "tê": 7409,
      "unh": 7410,
      "đệ": 7411,
      "chợt": 7412,
      "trig": 7413,
      "ays": 7414,
      "sole": 7415,
      "fortune": 7416,
      "netic": 7417,
      "divide": 7418,
      "options": 7419,
      "comput": 7420,
      "execu": 7421,
      "perman": 7422,
      "somewhat": 7423,
      "donald": 7424,
      "display": 7425,
      "overall": 7426,
      "marath": 7427,
      "obes": 7428,
      "poses": 7429,
      "2012": 7430,
      "1930": 7431,
      "triều": 7432,
      "licts": 7433,
      "grain": 7434,
      "condom": 7435,
      "treating": 7436,
      "2002": 7437,
      "transcript": 7438,
      "subtitles": 7439,
      "surely": 7440,
      "broke": 7441,
      "protected": 7442,
      "signs": 7443,
      "yorker": 7444,
      "swit": 7445,
      "devast": 7446,
      "tím": 7447,
      "frequen": 7448,
      "largely": 7449,
      "potentially": 7450,
      "existence": 7451,
      "records": 7452,
      "neighbors": 7453,
      "properties": 7454,
      "determine": 7455,
      "detect": 7456,
      "geographic": 7457,
      "ultimate": 7458,
      "welcome": 7459,
      "pulled": 7460,
      "vehicles": 7461,
      "technique": 7462,
      "puzzle": 7463,
      "mystery": 7464,
      "fifth": 7465,
      "shadow": 7466,
      "entertainment": 7467,
      "joseph": 7468,
      "naturally": 7469,
      "gũi": 7470,
      "58": 7471,
      "bẩn": 7472,
      "cab": 7473,
      "ctu": 7474,
      "hét": 7475,
      "lân": 7476,
      "lồng": 7477,
      "mone": 7478,
      "nồng": 7479,
      "pour": 7480,
      "rors": 7481,
      "scri": 7482,
      "tạng": 7483,
      "xy": 7484,
      "ngẫm": 7485,
      "nhĩ": 7486,
      "chẽ": 7487,
      "thes": 7488,
      "tráng": 7489,
      "onia": 7490,
      "gien": 7491,
      "giáng": 7492,
      "omes": 7493,
      "whales": 7494,
      "sep": 7495,
      "nhường": 7496,
      "suic": 7497,
      "độn": 7498,
      "upper": 7499,
      "underwater": 7500,
      "monkey": 7501,
      "download": 7502,
      "joke": 7503,
      "ballo": 7504,
      "faced": 7505,
      "fication": 7506,
      "collected": 7507,
      "closely": 7508,
      "explained": 7509,
      "dedic": 7510,
      "promis": 7511,
      "mathematical": 7512,
      "housing": 7513,
      "january": 7514,
      "zoom": 7515,
      "wheelchair": 7516,
      "advance": 7517,
      "season": 7518,
      "spoken": 7519,
      "volume": 7520,
      "greenhouse": 7521,
      "obesity": 7522,
      "46": 7523,
      "bid": 7524,
      "bám": 7525,
      "cược": 7526,
      "dỗ": 7527,
      "honey": 7528,
      "tat": 7529,
      "nhạt": 7530,
      "chat": 7531,
      "chos": 7532,
      "chôn": 7533,
      "champ": 7534,
      "react": 7535,
      "intention": 7536,
      "trán": 7537,
      "quặc": 7538,
      "orches": 7539,
      "astro": 7540,
      "leap": 7541,
      "likes": 7542,
      "neither": 7543,
      "implement": 7544,
      "admit": 7545,
      "usive": 7546,
      "frid": 7547,
      "odd": 7548,
      "noon": 7549,
      "nhào": 7550,
      "xuân": 7551,
      "ckle": 7552,
      "implications": 7553,
      "bie": 7554,
      "generated": 7555,
      "farmer": 7556,
      "economist": 7557,
      "boring": 7558,
      "educational": 7559,
      "keeps": 7560,
      "painful": 7561,
      "horizon": 7562,
      "depth": 7563,
      "conflicts": 7564,
      "songs": 7565,
      "measuring": 7566,
      "feeding": 7567,
      "spreading": 7568,
      "flexi": 7569,
      "arguments": 7570,
      "laden": 7571,
      "pushing": 7572,
      "citizen": 7573,
      "frankly": 7574,
      "continued": 7575,
      "flip": 7576,
      "taste": 7577,
      "activities": 7578,
      "heaven": 7579,
      "egypt": 7580,
      "advertising": 7581,
      "regret": 7582,
      "phrase": 7583,
      "insurance": 7584,
      "joshua": 7585,
      "abstract": 7586,
      "biotics": 7587,
      "symptoms": 7588,
      "bấm": 7589,
      "cence": 7590,
      "dd": 7591,
      "hò": 7592,
      "hiếp": 7593,
      "ito": 7594,
      "lều": 7595,
      "lánh": 7596,
      "mến": 7597,
      "milli": 7598,
      "pace": 7599,
      "rỗng": 7600,
      "ua": 7601,
      "xỉ": 7602,
      "ín": 7603,
      "anas": 7604,
      "remove": 7605,
      "refer": 7606,
      "gil": 7607,
      "beet": 7608,
      "het": 7609,
      "kevin": 7610,
      "sier": 7611,
      "gìn": 7612,
      "plot": 7613,
      "agency": 7614,
      "newton": 7615,
      "disrup": 7616,
      "bias": 7617,
      "montana": 7618,
      "1900": 7619,
      "minor": 7620,
      "pill": 7621,
      "handle": 7622,
      "transfer": 7623,
      "careful": 7624,
      "rising": 7625,
      "photography": 7626,
      "classic": 7627,
      "dropped": 7628,
      "glad": 7629,
      "statement": 7630,
      "tember": 7631,
      "recorded": 7632,
      "adoles": 7633,
      "providing": 7634,
      "suffer": 7635,
      "smoke": 7636,
      "elimin": 7637,
      "religions": 7638,
      "ibm": 7639,
      "galaxies": 7640,
      "incentives": 7641,
      "ignorance": 7642,
      "conclusion": 7643,
      "pregnant": 7644,
      "september": 7645,
      "aa": 7646,
      "aes": 7647,
      "bj": 7648,
      "cài": 7649,
      "ears": 7650,
      "jane": 7651,
      "kal": 7652,
      "nom": 7653,
      "rice": 7654,
      "rating": 7655,
      "sáo": 7656,
      "sét": 7657,
      "sắm": 7658,
      "ura": 7659,
      "vy": 7660,
      "wid": 7661,
      "ister": 7662,
      "quạ": 7663,
      "oton": 7664,
      "ardo": 7665,
      "giọt": 7666,
      "tivi": 7667,
      "whale": 7668,
      "rail": 7669,
      "acces": 7670,
      "roots": 7671,
      "amin": 7672,
      "dipl": 7673,
      "button": 7674,
      "proportion": 7675,
      "luân": 7676,
      "chief": 7677,
      "wherever": 7678,
      "shell": 7679,
      "disorder": 7680,
      "brush": 7681,
      "label": 7682,
      "official": 7683,
      "coral": 7684,
      "banks": 7685,
      "pipe": 7686,
      "funded": 7687,
      "designs": 7688,
      "missed": 7689,
      "kìa": 7690,
      "relate": 7691,
      "truck": 7692,
      "mãnh": 7693,
      "younger": 7694,
      "ruột": 7695,
      "elder": 7696,
      "classes": 7697,
      "speaker": 7698,
      "reached": 7699,
      "required": 7700,
      "linked": 7701,
      "performing": 7702,
      "prototype": 7703,
      "surrounded": 7704,
      "obsessed": 7705,
      "evalu": 7706,
      "retire": 7707,
      "diplom": 7708,
      "cers": 7709,
      "lit": 7710,
      "lùng": 7711,
      "mổ": 7712,
      "pion": 7713,
      "vứt": 7714,
      "thấm": 7715,
      "attend": 7716,
      "input": 7717,
      "alt": 7718,
      "quis": 7719,
      "phun": 7720,
      "acid": 7721,
      "logo": 7722,
      "outcome": 7723,
      "pep": 7724,
      "dece": 7725,
      "luỹ": 7726,
      "agos": 7727,
      "appo": 7728,
      "bru": 7729,
      "formal": 7730,
      "tribe": 7731,
      "breed": 7732,
      "limits": 7733,
      "hearts": 7734,
      "struck": 7735,
      "neuron": 7736,
      "causing": 7737,
      "elev": 7738,
      "deaths": 7739,
      "palm": 7740,
      "furnit": 7741,
      "latest": 7742,
      "assume": 7743,
      "engagement": 7744,
      "efficiency": 7745,
      "methods": 7746,
      "customers": 7747,
      "nurses": 7748,
      "assem": 7749,
      "fingers": 7750,
      "categor": 7751,
      "conservation": 7752,
      "palestine": 7753,
      "furniture": 7754,
      "42": 7755,
      "gom": 7756,
      "ix": 7757,
      "ians": 7758,
      "lỡ": 7759,
      "papers": 7760,
      "vạch": 7761,
      "xen": 7762,
      "yn": 7763,
      "triệt": 7764,
      "quỷ": 7765,
      "oty": 7766,
      "pharm": 7767,
      "tivity": 7768,
      "icon": 7769,
      "dopam": 7770,
      "mult": 7771,
      "implant": 7772,
      "shall": 7773,
      "spo": 7774,
      "prost": 7775,
      "paras": 7776,
      "lak": 7777,
      "surve": 7778,
      "pire": 7779,
      "olds": 7780,
      "invite": 7781,
      "translate": 7782,
      "icious": 7783,
      "chaos": 7784,
      "foods": 7785,
      "robotic": 7786,
      "populations": 7787,
      "antibiotics": 7788,
      "sensors": 7789,
      "apartment": 7790,
      "raising": 7791,
      "teenagers": 7792,
      "fascinated": 7793,
      "curiosity": 7794,
      "quarter": 7795,
      "agencies": 7796,
      "historical": 7797,
      "academic": 7798,
      "neurosci": 7799,
      "jesus": 7800,
      "strangers": 7801,
      "qaeda": 7802,
      "dopamine": 7803,
      "98": 7804,
      "bồi": 7805,
      "bition": 7806,
      "bóc": 7807,
      "cọ": 7808,
      "dent": 7809,
      "gos": 7810,
      "gory": 7811,
      "host": 7812,
      "jones": 7813,
      "jaw": 7814,
      "lề": 7815,
      "lăng": 7816,
      "rã": 7817,
      "vờ": 7818,
      "wk": 7819,
      "xăm": 7820,
      "ênh": 7821,
      "chọc": 7822,
      "refri": 7823,
      "receive": 7824,
      "bei": 7825,
      "locked": 7826,
      "consum": 7827,
      "absor": 7828,
      "outcomes": 7829,
      "thered": 7830,
      "france": 7831,
      "agend": 7832,
      "worker": 7833,
      "fox": 7834,
      "hãm": 7835,
      "distur": 7836,
      "disney": 7837,
      "clint": 7838,
      "interactions": 7839,
      "preced": 7840,
      "tribes": 7841,
      "license": 7842,
      "chuông": 7843,
      "matt": 7844,
      "functions": 7845,
      "charity": 7846,
      "delhi": 7847,
      "connecting": 7848,
      "graphics": 7849,
      "tanzan": 7850,
      "figures": 7851,
      "falls": 7852,
      "silver": 7853,
      "huynh": 7854,
      "clothes": 7855,
      "1999": 7856,
      "passeng": 7857,
      "evolutionary": 7858,
      "fixed": 7859,
      "offered": 7860,
      "appreciate": 7861,
      "concepts": 7862,
      "dvd": 7863,
      "phosph": 7864,
      "paradig": 7865,
      "yield": 7866,
      "accessible": 7867,
      "refriger": 7868,
      "64": 7869,
      "bye": 7870,
      "dang": 7871,
      "fts": 7872,
      "jill": 7873,
      "kin": 7874,
      "lưỡi": 7875,
      "léo": 7876,
      "móng": 7877,
      "score": 7878,
      "vòi": 7879,
      "xà": 7880,
      "đc": 7881,
      "chằm": 7882,
      "chớp": 7883,
      "reform": 7884,
      "infl": 7885,
      "instruc": 7886,
      "alan": 7887,
      "orders": 7888,
      "lewis": 7889,
      "tied": 7890,
      "selection": 7891,
      "contribute": 7892,
      "dozen": 7893,
      "gel": 7894,
      "tuỷ": 7895,
      "suspe": 7896,
      "usions": 7897,
      "antarctic": 7898,
      "plu": 7899,
      "nowhere": 7900,
      "tựu": 7901,
      "application": 7902,
      "geni": 7903,
      "evening": 7904,
      "assist": 7905,
      "jean": 7906,
      "colom": 7907,
      "traveled": 7908,
      "sticks": 7909,
      "imaging": 7910,
      "engaging": 7911,
      "technological": 7912,
      "planes": 7913,
      "curve": 7914,
      "cheaper": 7915,
      "drives": 7916,
      "awa": 7917,
      "burst": 7918,
      "explos": 7919,
      "deploy": 7920,
      "pursu": 7921,
      "ridicul": 7922,
      "fishing": 7923,
      "ceived": 7924,
      "narrow": 7925,
      "meetings": 7926,
      "reflec": 7927,
      "celebrate": 7928,
      "frog": 7929,
      "frozen": 7930,
      "optimistic": 7931,
      "alexander": 7932,
      "sarah": 7933,
      "practices": 7934,
      "volunteers": 7935,
      "precisely": 7936,
      "powers": 7937,
      "anonymous": 7938,
      "datab": 7939,
      "tweet": 7940,
      "sandwich": 7941,
      "rhythm": 7942,
      "embedded": 7943,
      "pione": 7944,
      "cend": 7945,
      "dough": 7946,
      "fla": 7947,
      "foss": 7948,
      "iled": 7949,
      "ngươi": 7950,
      "rema": 7951,
      "reference": 7952,
      "toler": 7953,
      "orange": 7954,
      "youth": 7955,
      "tability": 7956,
      "beer": 7957,
      "behave": 7958,
      "bug": 7959,
      "decre": 7960,
      "khiêm": 7961,
      "adminis": 7962,
      "comfort": 7963,
      "plenty": 7964,
      "wanting": 7965,
      "sheet": 7966,
      "distributed": 7967,
      "happier": 7968,
      "paraly": 7969,
      "bible": 7970,
      "standards": 7971,
      "offic": 7972,
      "mining": 7973,
      "afternoon": 7974,
      "morality": 7975,
      "nathan": 7976,
      "simon": 7977,
      "cheese": 7978,
      "ipod": 7979,
      "arency": 7980,
      "elections": 7981,
      "equation": 7982,
      "fram": 7983,
      "glac": 7984,
      "winning": 7985,
      "tailed": 7986,
      "climb": 7987,
      "existed": 7988,
      "recording": 7989,
      "flood": 7990,
      "liza": 7991,
      "surprisingly": 7992,
      "imagined": 7993,
      "fortunate": 7994,
      "transparency": 7995,
      "arabic": 7996,
      "occurred": 7997,
      "scotland": 7998,
      "seeds": 7999,
      "component": 8000,
      "trend": 8001,
      "wolfram": 8002,
      "commitment": 8003,
      "attempt": 8004,
      "vietnam": 8005,
      "guaran": 8006,
      "ingredients": 8007,
      "brooklyn": 8008,
      "poorest": 8009,
      "võng": 8010,
      "sacrif": 8011,
      "chromos": 8012,
      "bốc": 8013,
      "cc": 8014,
      "gaz": 8015,
      "jh": 8016,
      "mỳ": 8017,
      "native": 8018,
      "nếp": 8019,
      "thin": 8020,
      "retin": 8021,
      "replac": 8022,
      "khe": 8023,
      "tight": 8024,
      "tiliz": 8025,
      "abandon": 8026,
      "tel": 8027,
      "modi": 8028,
      "luc": 8029,
      "lui": 8030,
      "luồng": 8031,
      "coach": 8032,
      "shin": 8033,
      "shine": 8034,
      "inequality": 8035,
      "pump": 8036,
      "sport": 8037,
      "needle": 8038,
      "compound": 8039,
      "visions": 8040,
      "gut": 8041,
      "captured": 8042,
      "curren": 8043,
      "organize": 8044,
      "connecti": 8045,
      "dramatically": 8046,
      "anticip": 8047,
      "expectations": 8048,
      "hungry": 8049,
      "synthe": 8050,
      "hackers": 8051,
      "combined": 8052,
      "copyright": 8053,
      "mammo": 8054,
      "hawai": 8055,
      "exploration": 8056,
      "split": 8057,
      "surgeon": 8058,
      "granted": 8059,
      "divided": 8060,
      "achieved": 8061,
      "bicycle": 8062,
      "marathon": 8063,
      "neuroscience": 8064,
      "award": 8065,
      "gạch": 8066,
      "hh": 8067,
      "ik": 8068,
      "lars": 8069,
      "schi": 8070,
      "tz": 8071,
      "zler": 8072,
      "ngẩn": 8073,
      "thắt": 8074,
      "nhóc": 8075,
      "toxic": 8076,
      "phô": 8077,
      "phan": 8078,
      "leak": 8079,
      "tile": 8080,
      "sele": 8081,
      "stations": 8082,
      "đóm": 8083,
      "hemis": 8084,
      "hook": 8085,
      "moore": 8086,
      "eman": 8087,
      "unclear": 8088,
      "extent": 8089,
      "ify": 8090,
      "covery": 8091,
      "owned": 8092,
      "talent": 8093,
      "đoạt": 8094,
      "herself": 8095,
      "cros": 8096,
      "crying": 8097,
      "county": 8098,
      "2030": 8099,
      "lighting": 8100,
      "otech": 8101,
      "senior": 8102,
      "drum": 8103,
      "cake": 8104,
      "instant": 8105,
      "privac": 8106,
      "classical": 8107,
      "nhiễu": 8108,
      "successfully": 8109,
      "johnny": 8110,
      "hammad": 8111,
      "silent": 8112,
      "increases": 8113,
      "title": 8114,
      "parkinson": 8115,
      "1984": 8116,
      "reported": 8117,
      "instruments": 8118,
      "inspiring": 8119,
      "agreed": 8120,
      "injury": 8121,
      "destroyed": 8122,
      "mosquito": 8123,
      "enemy": 8124,
      "virginia": 8125,
      "apparently": 8126,
      "conveni": 8127,
      "remains": 8128,
      "privacy": 8129,
      "72": 8130,
      "avi": 8131,
      "abun": 8132,
      "bể": 8133,
      "cart": 8134,
      "cash": 8135,
      "dịp": 8136,
      "ek": 8137,
      "ethi": 8138,
      "fusion": 8139,
      "gậy": 8140,
      "ngớ": 8141,
      "ngưng": 8142,
      "removed": 8143,
      "traged": 8144,
      "eradic": 8145,
      "tops": 8146,
      "encing": 8147,
      "aspects": 8148,
      "leban": 8149,
      "stun": 8150,
      "lize": 8151,
      "ller": 8152,
      "ghê": 8153,
      "hoành": 8154,
      "robust": 8155,
      "tuỵ": 8156,
      "cảng": 8157,
      "imper": 8158,
      "usal": 8159,
      "usha": 8160,
      "kiêng": 8161,
      "cling": 8162,
      "lax": 8163,
      "tedglobal": 8164,
      "obsta": 8165,
      "carri": 8166,
      "dust": 8167,
      "oldest": 8168,
      "airport": 8169,
      "musicians": 8170,
      "đôla": 8171,
      "teszler": 8172,
      "queen": 8173,
      "speakers": 8174,
      "printed": 8175,
      "slides": 8176,
      "footprint": 8177,
      "communications": 8178,
      "tower": 8179,
      "spiritual": 8180,
      "villages": 8181,
      "amongst": 8182,
      "synthetic": 8183,
      "homo": 8184,
      "session": 8185,
      "provided": 8186,
      "protest": 8187,
      "decline": 8188,
      "ignore": 8189,
      "olympic": 8190,
      "tasmanian": 8191,
      "elephant": 8192,
      "ethiop": 8193,
      "bầy": 8194,
      "bones": 8195,
      "dj": 8196,
      "enh": 8197,
      "eliza": 8198,
      "hít": 8199,
      "mộc": 8200,
      "ov": 8201,
      "pted": 8202,
      "sọ": 8203,
      "vả": 8204,
      "đúc": 8205,
      "ngue": 8206,
      "nhagen": 8207,
      "chor": 8208,
      "ato": 8209,
      "itz": 8210,
      "argent": 8211,
      "assign": 8212,
      "wet": 8213,
      "veter": 8214,
      "bered": 8215,
      "haz": 8216,
      "actors": 8217,
      "peer": 8218,
      "delive": 8219,
      "diver": 8220,
      "teries": 8221,
      "mode": 8222,
      "unlikely": 8223,
      "khoăn": 8224,
      "spinal": 8225,
      "poet": 8226,
      "biom": 8227,
      "jet": 8228,
      "writ": 8229,
      "licit": 8230,
      "cord": 8231,
      "lovely": 8232,
      "miser": 8233,
      "secondly": 8234,
      "fried": 8235,
      "limb": 8236,
      "labs": 8237,
      "đuối": 8238,
      "fathers": 8239,
      "fluid": 8240,
      "depending": 8241,
      "christian": 8242,
      "rays": 8243,
      "describes": 8244,
      "worthy": 8245,
      "penn": 8246,
      "consume": 8247,
      "represented": 8248,
      "folding": 8249,
      "copenhagen": 8250,
      "budd": 8251,
      "prosthetic": 8252,
      "savings": 8253,
      "scenari": 8254,
      "assemble": 8255,
      "hello": 8256,
      "pherom": 8257,
      "cooperation": 8258,
      "exploring": 8259,
      "evolve": 8260,
      "astonishing": 8261,
      "agenda": 8262,
      "tanzania": 8263,
      "delivered": 8264,
      "350": 8265,
      "cs": 8266,
      "gw": 8267,
      "hận": 8268,
      "mỡ": 8269,
      "nin": 8270,
      "rỉ": 8271,
      "sla": 8272,
      "súp": 8273,
      "xé": 8274,
      "yan": 8275,
      "đậm": 8276,
      "ửng": 8277,
      "chen": 8278,
      "anes": 8279,
      "recovery": 8280,
      "trúng": 8281,
      "ert": 8282,
      "enable": 8283,
      "phật": 8284,
      "phony": 8285,
      "aspect": 8286,
      "tip": 8287,
      "seal": 8288,
      "lims": 8289,
      "lla": 8290,
      "choos": 8291,
      "forts": 8292,
      "conclu": 8293,
      "hoo": 8294,
      "hoan": 8295,
      "hoãn": 8296,
      "ament": 8297,
      "dioxide": 8298,
      "females": 8299,
      "moz": 8300,
      "excell": 8301,
      "external": 8302,
      "agg": 8303,
      "coordin": 8304,
      "igu": 8305,
      "spider": 8306,
      "strip": 8307,
      "letting": 8308,
      "underground": 8309,
      "colony": 8310,
      "mines": 8311,
      "treas": 8312,
      "musician": 8313,
      "muslims": 8314,
      "views": 8315,
      "instantly": 8316,
      "researcher": 8317,
      "efforts": 8318,
      "presented": 8319,
      "80s": 8320,
      "replic": 8321,
      "football": 8322,
      "floating": 8323,
      "properly": 8324,
      "participants": 8325,
      "nico": 8326,
      "demonstrate": 8327,
      "debt": 8328,
      "beliefs": 8329,
      "paintings": 8330,
      "cartoons": 8331,
      "scary": 8332,
      "julia": 8333,
      "breathing": 8334,
      "complain": 8335,
      "extinct": 8336,
      "refuge": 8337,
      "accumul": 8338,
      "rescue": 8339,
      "anxiety": 8340,
      "suicide": 8341,
      "chosen": 8342,
      "sierra": 8343,
      "consumers": 8344,
      "administr": 8345,
      "130": 8346,
      "băn": 8347,
      "canh": 8348,
      "gang": 8349,
      "kis": 8350,
      "sphere": 8351,
      "wn": 8352,
      "ât": 8353,
      "ẽn": 8354,
      "ngột": 8355,
      "nhủ": 8356,
      "nhánh": 8357,
      "cham": 8358,
      "chest": 8359,
      "reau": 8360,
      "recom": 8361,
      "ond": 8362,
      "armed": 8363,
      "lean": 8364,
      "nàn": 8365,
      "điền": 8366,
      "meg": 8367,
      "loves": 8368,
      "mud": 8369,
      "muhammad": 8370,
      "feature": 8371,
      "ements": 8372,
      "adjust": 8373,
      "unbe": 8374,
      "combat": 8375,
      "propos": 8376,
      "june": 8377,
      "essence": 8378,
      "coch": 8379,
      "yours": 8380,
      "spr": 8381,
      "....": 8382,
      "stroke": 8383,
      "thrown": 8384,
      "jected": 8385,
      "file": 8386,
      "fires": 8387,
      "finds": 8388,
      "transmit": 8389,
      "drone": 8390,
      "grows": 8391,
      "searching": 8392,
      "friendly": 8393,
      "drill": 8394,
      "flour": 8395,
      "hormon": 8396,
      "frequ": 8397,
      "measured": 8398,
      "dependent": 8399,
      "attached": 8400,
      "failing": 8401,
      "utter": 8402,
      "hổng": 8403,
      "sensory": 8404,
      "contains": 8405,
      "shifting": 8406,
      "improvement": 8407,
      "calculate": 8408,
      "circuit": 8409,
      "nucle": 8410,
      "affordable": 8411,
      "microscope": 8412,
      "tiệm": 8413,
      "jerusal": 8414,
      "saharan": 8415,
      "prepare": 8416,
      "sculpture": 8417,
      "jenn": 8418,
      "physicist": 8419,
      "comedy": 8420,
      "dinosaurs": 8421,
      "permanent": 8422,
      "balloon": 8423,
      "clinton": 8424,
      "jerusalem": 8425,
      "96": 8426,
      "adi": 8427,
      "cn": 8428,
      "gation": 8429,
      "glow": 8430,
      "hou": 8431,
      "hưng": 8432,
      "kni": 8433,
      "lê": 8434,
      "lone": 8435,
      "lens": 8436,
      "nap": 8437,
      "pitch": 8438,
      "von": 8439,
      "vội": 8440,
      "zoph": 8441,
      "returned": 8442,
      "tras": 8443,
      "enzy": 8444,
      "alco": 8445,
      "album": 8446,
      "phốt": 8447,
      "aside": 8448,
      "giật": 8449,
      "bears": 8450,
      "steven": 8451,
      "acqui": 8452,
      "idi": 8453,
      "nghẽn": 8454,
      "autom": 8455,
      "convic": 8456,
      "pets": 8457,
      "defe": 8458,
      "degra": 8459,
      "suspend": 8460,
      "susan": 8461,
      "tears": 8462,
      "units": 8463,
      "committed": 8464,
      "ifer": 8465,
      "chuyền": 8466,
      "reson": 8467,
      "cia": 8468,
      "cian": 8469,
      "ague": 8470,
      "seek": 8471,
      "mich": 8472,
      "giáp": 8473,
      "hier": 8474,
      "paralle": 8475,
      "carried": 8476,
      "jec": 8477,
      "bless": 8478,
      "imagery": 8479,
      "guard": 8480,
      "drones": 8481,
      "contract": 8482,
      "density": 8483,
      "protecting": 8484,
      "presentation": 8485,
      "collaps": 8486,
      "violin": 8487,
      "psychi": 8488,
      "drawn": 8489,
      "architects": 8490,
      "identified": 8491,
      "halluc": 8492,
      "distant": 8493,
      "struggling": 8494,
      "vitamin": 8495,
      "gãy": 8496,
      "electronic": 8497,
      "electronics": 8498,
      "baseball": 8499,
      "boundaries": 8500,
      "federal": 8501,
      "pacific": 8502,
      "sylvia": 8503,
      "explanation": 8504,
      "criminals": 8505,
      "oecd": 8506,
      "district": 8507,
      "restore": 8508,
      "paradigm": 8509,
      "schizoph": 8510,
      "bẩm": 8511,
      "dại": 8512,
      "dệt": 8513,
      "ets": 8514,
      "hong": 8515,
      "lô": 8516,
      "mice": 8517,
      "pand": 8518,
      "ras": 8519,
      "rốt": 8520,
      "rạp": 8521,
      "rati": 8522,
      "tôm": 8523,
      "ulum": 8524,
      "vất": 8525,
      "vital": 8526,
      "xứ": 8527,
      "đốm": 8528,
      "ngư": 8529,
      "ngụ": 8530,
      "anderson": 8531,
      "ende": 8532,
      "phia": 8533,
      "leone": 8534,
      "whis": 8535,
      "rah": 8536,
      "meal": 8537,
      "aud": 8538,
      "kee": 8539,
      "kel": 8540,
      "kem": 8541,
      "dign": 8542,
      "diverse": 8543,
      "features": 8544,
      "mao": 8545,
      "exception": 8546,
      "venice": 8547,
      "bolic": 8548,
      "clon": 8549,
      "umin": 8550,
      "leton": 8551,
      "marine": 8552,
      "turing": 8553,
      "afterwards": 8554,
      "matri": 8555,
      "personality": 8556,
      "capes": 8557,
      "capita": 8558,
      "ceptions": 8559,
      "shopping": 8560,
      "shocking": 8561,
      "adding": 8562,
      "educated": 8563,
      "burden": 8564,
      "bene": 8565,
      "benjam": 8566,
      "xoắn": 8567,
      "70s": 8568,
      "richer": 8569,
      "vaccin": 8570,
      "christo": 8571,
      "sales": 8572,
      "expectancy": 8573,
      "babylon": 8574,
      "sleeping": 8575,
      "policies": 8576,
      "recognition": 8577,
      "psychopath": 8578,
      "flew": 8579,
      "hidi": 8580,
      "incident": 8581,
      "tasks": 8582,
      "separated": 8583,
      "discuss": 8584,
      "waters": 8585,
      "hunting": 8586,
      "liberal": 8587,
      "interacting": 8588,
      "resistant": 8589,
      "neighborhoods": 8590,
      "tangible": 8591,
      "trends": 8592,
      "involves": 8593,
      "motivation": 8594,
      "abuse": 8595,
      "bosnia": 8596,
      "mushroom": 8597,
      "vessels": 8598,
      "dolphins": 8599,
      "leonardo": 8600,
      "phosphor": 8601,
      "ridiculous": 8602,
      "fossil": 8603,
      "elizabeth": 8604,
      "97": 8605,
      "bẻ": 8606,
      "bally": 8607,
      "bars": 8608,
      "bach": 8609,
      "lation": 8610,
      "mầm": 8611,
      "oy": 8612,
      "sl": 8613,
      "ute": 8614,
      "vạn": 8615,
      "vòm": 8616,
      "ws": 8617,
      "chày": 8618,
      "chase": 8619,
      "theless": 8620,
      "inf": 8621,
      "trash": 8622,
      "osis": 8623,
      "escape": 8624,
      "lia": 8625,
      "liev": 8626,
      "lored": 8627,
      "bub": 8628,
      "aming": 8629,
      "delight": 8630,
      "depressed": 8631,
      "cute": 8632,
      "dive": 8633,
      "expos": 8634,
      "khoai": 8635,
      "wheat": 8636,
      "gras": 8637,
      "creature": 8638,
      "overcome": 8639,
      "laid": 8640,
      "interrup": 8641,
      "ishment": 8642,
      "coln": 8643,
      "licity": 8644,
      "minim": 8645,
      "phiêu": 8646,
      "lecture": 8647,
      "babwe": 8648,
      "stages": 8649,
      "nutri": 8650,
      "organism": 8651,
      "produces": 8652,
      "interestingly": 8653,
      "thiêng": 8654,
      "ugly": 8655,
      "ogue": 8656,
      "soup": 8657,
      "santa": 8658,
      "confident": 8659,
      "greenland": 8660,
      "domes": 8661,
      "lincoln": 8662,
      "intrigu": 8663,
      "predictable": 8664,
      "recognized": 8665,
      "crucial": 8666,
      "emergency": 8667,
      "covering": 8668,
      "characteristics": 8669,
      "activist": 8670,
      "automatically": 8671,
      "crops": 8672,
      "wireless": 8673,
      "agricultural": 8674,
      "controlling": 8675,
      "zimbabwe": 8676,
      "resilience": 8677,
      "stereoty": 8678,
      "ferences": 8679,
      "hetti": 8680,
      "genius": 8681,
      "ethiopia": 8682,
      "86": 8683,
      "athan": 8684,
      "cad": 8685,
      "fos": 8686,
      "gai": 8687,
      "hông": 8688,
      "hors": 8689,
      "jas": 8690,
      "kam": 8691,
      "lột": 8692,
      "oid": 8693,
      "rr": 8694,
      "sướng": 8695,
      "tùng": 8696,
      "tịch": 8697,
      "twee": 8698,
      "usa": 8699,
      "uốn": 8700,
      "vặt": 8701,
      "xách": 8702,
      "yers": 8703,
      "đom": 8704,
      "đụng": 8705,
      "nhị": 8706,
      "nhấp": 8707,
      "ani": 8708,
      "reha": 8709,
      "renew": 8710,
      "recep": 8711,
      "ensure": 8712,
      "alter": 8713,
      "quant": 8714,
      "esh": 8715,
      "aron": 8716,
      "tired": 8717,
      "tives": 8718,
      "cáp": 8719,
      "tao": 8720,
      "lions": 8721,
      "lift": 8722,
      "nón": 8723,
      "rage": 8724,
      "entered": 8725,
      "august": 8726,
      "keley": 8727,
      "neural": 8728,
      "rolling": 8729,
      "diam": 8730,
      "nowad": 8731,
      "uncomfortable": 8732,
      "uncertainty": 8733,
      "sig": 8734,
      "ultra": 8735,
      "grat": 8736,
      "spon": 8737,
      "printer": 8738,
      "answered": 8739,
      "impacts": 8740,
      "parli": 8741,
      "tically": 8742,
      "betes": 8743,
      "offici": 8744,
      "visited": 8745,
      "banjo": 8746,
      "founded": 8747,
      "athle": 8748,
      "invas": 8749,
      "mptions": 8750,
      "muscles": 8751,
      "picking": 8752,
      "subtle": 8753,
      "productivity": 8754,
      "photographer": 8755,
      "lawyers": 8756,
      "directions": 8757,
      "keyboard": 8758,
      "continues": 8759,
      "explaining": 8760,
      "improved": 8761,
      "patho": 8762,
      "israeli": 8763,
      "psychological": 8764,
      "strategies": 8765,
      "chairs": 8766,
      "mixed": 8767,
      "sweat": 8768,
      "philosopher": 8769,
      "laughing": 8770,
      "jonathan": 8771,
      "dominant": 8772,
      "somalia": 8773,
      "shirt": 8774,
      "anthropo": 8775,
      "diabetes": 8776,
      "barely": 8777,
      "neanderthal": 8778,
      "aesthetic": 8779,
      "assembly": 8780,
      "crossing": 8781,
      "ushahidi": 8782,
      "phosphorus": 8783,
      "nowadays": 8784,
      "140": 8785,
      "aer": 8786,
      "adel": 8787,
      "dập": 8788,
      "ee": 8789,
      "nest": 8790,
      "pap": 8791,
      "pants": 8792,
      "rộn": 8793,
      "rìa": 8794,
      "sink": 8795,
      "sket": 8796,
      "wand": 8797,
      "yves": 8798,
      "ếm": 8799,
      "khen": 8800,
      "itim": 8801,
      "phiến": 8802,
      "secure": 8803,
      "lip": 8804,
      "rarely": 8805,
      "helic": 8806,
      "ghé": 8807,
      "commod": 8808,
      "luck": 8809,
      "upload": 8810,
      "aghetti": 8811,
      "quantum": 8812,
      "coke": 8813,
      "spaghetti": 8814,
      "prices": 8815,
      "shelf": 8816,
      "disappo": 8817,
      "berkeley": 8818,
      "parado": 8819,
      "forming": 8820,
      "jeopard": 8821,
      "filling": 8822,
      "stops": 8823,
      "tragic": 8824,
      "shoulder": 8825,
      "mato": 8826,
      "archy": 8827,
      "sensor": 8828,
      "tooth": 8829,
      "homeless": 8830,
      "ipad": 8831,
      "hardly": 8832,
      "opens": 8833,
      "openness": 8834,
      "robotics": 8835,
      "drivers": 8836,
      "passing": 8837,
      "legis": 8838,
      "legacy": 8839,
      "legitim": 8840,
      "controls": 8841,
      "filter": 8842,
      "painted": 8843,
      "operations": 8844,
      "occu": 8845,
      "equality": 8846,
      "staying": 8847,
      "nanop": 8848,
      "texting": 8849,
      "closing": 8850,
      "predictions": 8851,
      "tempest": 8852,
      "garage": 8853,
      "multip": 8854,
      "located": 8855,
      "links": 8856,
      "publish": 8857,
      "detector": 8858,
      "provides": 8859,
      "accidents": 8860,
      "millen": 8861,
      "drinking": 8862,
      "gonna": 8863,
      "julian": 8864,
      "agreement": 8865,
      "repeat": 8866,
      "repeated": 8867,
      "determined": 8868,
      "estimate": 8869,
      "virtually": 8870,
      "philip": 8871,
      "unbeliev": 8872,
      "jeopardy": 8873,
      "34": 8874,
      "bam": 8875,
      "biếm": 8876,
      "cled": 8877,
      "coper": 8878,
      "eera": 8879,
      "fau": 8880,
      "gạt": 8881,
      "hái": 8882,
      "ives": 8883,
      "jun": 8884,
      "kề": 8885,
      "kệ": 8886,
      "lọ": 8887,
      "mw": 8888,
      "mốc": 8889,
      "mama": 8890,
      "oth": 8891,
      "oing": 8892,
      "oak": 8893,
      "rats": 8894,
      "ss": 8895,
      "sput": 8896,
      "sườn": 8897,
      "zens": 8898,
      "thốt": 8899,
      "thắn": 8900,
      "chướng": 8901,
      "anatom": 8902,
      "remem": 8903,
      "inburgh": 8904,
      "tokyo": 8905,
      "khùng": 8906,
      "khẩn": 8907,
      "encounter": 8908,
      "phthal": 8909,
      "gile": 8910,
      "edinburgh": 8911,
      "tah": 8912,
      "lol": 8913,
      "dear": 8914,
      "ceiling": 8915,
      "siber": 8916,
      "sized": 8917,
      "comparis": 8918,
      "prop": 8919,
      "persu": 8920,
      "okes": 8921,
      "mili": 8922,
      "reef": 8923,
      "vịt": 8924,
      "mayor": 8925,
      "herit": 8926,
      "marks": 8927,
      "stores": 8928,
      "blank": 8929,
      "môt": 8930,
      "crack": 8931,
      "globally": 8932,
      "tunnel": 8933,
      "viewer": 8934,
      "governance": 8935,
      "thiền": 8936,
      "figuring": 8937,
      "banglad": 8938,
      "audio": 8939,
      "innocent": 8940,
      "woo": 8941,
      "cameron": 8942,
      "analo": 8943,
      "killer": 8944,
      "magnetic": 8945,
      "ethnic": 8946,
      "assumptions": 8947,
      "colleague": 8948,
      "tricks": 8949,
      "jazeera": 8950,
      "translation": 8951,
      "academy": 8952,
      "manufacture": 8953,
      "columbia": 8954,
      "demonstration": 8955,
      "adventure": 8956,
      "atlantic": 8957,
      "korea": 8958,
      "objective": 8959,
      "vegetables": 8960,
      "elderly": 8961,
      "argentina": 8962,
      "schizophren": 8963,
      "parliament": 8964,
      "paradox": 8965,
      "3000": 8966,
      "77": 8967,
      "bực": 8968,
      "bhu": 8969,
      "búa": 8970,
      "cay": 8971,
      "dồn": 8972,
      "fung": 8973,
      "fted": 8974,
      "gers": 8975,
      "gments": 8976,
      "hitting": 8977,
      "kẽ": 8978,
      "kit": 8979,
      "kẹp": 8980,
      "ological": 8981,
      "tăm": 8982,
      "ubi": 8983,
      "vable": 8984,
      "ww": 8985,
      "zi": 8986,
      "chóc": 8987,
      "anced": 8988,
      "inches": 8989,
      "ena": 8990,
      "alice": 8991,
      "arrang": 8992,
      "asts": 8993,
      "lever": 8994,
      "cán": 8995,
      "củng": 8996,
      "đinh": 8997,
      "verb": 8998,
      "kelly": 8999,
      "outer": 9000,
      "negie": 9001,
      "roger": 9002,
      "detailed": 9003,
      "susp": 9004,
      "subur": 9005,
      "usd": 9006,
      "exposed": 9007,
      "plug": 9008,
      "nois": 9009,
      "luther": 9010,
      "civic": 9011,
      "nhàm": 9012,
      "sauce": 9013,
      "sửng": 9014,
      "disappeared": 9015,
      "assess": 9016,
      "marco": 9017,
      "obli": 9018,
      "carnegie": 9019,
      "thoáng": 9020,
      "chíp": 9021,
      "visi": 9022,
      "capt": 9023,
      "headed": 9024,
      "borrow": 9025,
      "trucks": 9026,
      "kenned": 9027,
      "sett": 9028,
      "tunis": 9029,
      "shore": 9030,
      "globalization": 9031,
      "specta": 9032,
      "starbucks": 9033,
      "damn": 9034,
      "simplicity": 9035,
      "jordan": 9036,
      "typing": 9037,
      "domain": 9038,
      "footage": 9039,
      "strongly": 9040,
      "supported": 9041,
      "philadel": 9042,
      "everest": 9043,
      "darkness": 9044,
      "consciously": 9045,
      "leather": 9046,
      "plastics": 9047,
      "stretch": 9048,
      "collaborative": 9049,
      "defend": 9050,
      "persist": 9051,
      "professionals": 9052,
      "plato": 9053,
      "nurse": 9054,
      "assets": 9055,
      "suggesting": 9056,
      "reduced": 9057,
      "quarters": 9058,
      "historic": 9059,
      "route": 9060,
      "insights": 9061,
      "gathering": 9062,
      "inevitable": 9063,
      "thumb": 9064,
      "mimic": 9065,
      "đệm": 9066,
      "frequency": 9067,
      "instructions": 9068,
      "antarctica": 9069,
      "sacrifice": 9070,
      "hawaii": 9071,
      "writers": 9072,
      "alcohol": 9073,
      "helicop": 9074,
      "sputnik": 9075,
      "kennedy": 9076,
      "philadelphia": 9077,
      "bren": 9078,
      "eleg": 9079,
      "kward": 9080,
      "mớ": 9081,
      "mép": 9082,
      "mưu": 9083,
      "naked": 9084,
      "qatar": 9085,
      "rỡ": 9086,
      "sits": 9087,
      "tống": 9088,
      "xộn": 9089,
      "ngục": 9090,
      "nhét": 9091,
      "anze": 9092,
      "relie": 9093,
      "relax": 9094,
      "trèo": 9095,
      "trùm": 9096,
      "eness": 9097,
      "itan": 9098,
      "itial": 9099,
      "phơi": 9100,
      "lege": 9101,
      "tag": 9102,
      "bureau": 9103,
      "choir": 9104,
      "choáng": 9105,
      "neat": 9106,
      "febr": 9107,
      "worm": 9108,
      "fruit": 9109,
      "odds": 9110,
      "restor": 9111,
      "ups": 9112,
      "kily": 9113,
      "shit": 9114,
      "shor": 9115,
      "appy": 9116,
      "huýt": 9117,
      "bris": 9118,
      "tedtalk": 9119,
      "underlying": 9120,
      "turk": 9121,
      "nike": 9122,
      "sciences": 9123,
      "onstage": 9124,
      "bali": 9125,
      "nerve": 9126,
      "parties": 9127,
      "facility": 9128,
      "healthier": 9129,
      "settle": 9130,
      "awkward": 9131,
      "probability": 9132,
      "180": 9133,
      "begun": 9134,
      "profits": 9135,
      "elsewhere": 9136,
      "tank": 9137,
      "sku": 9138,
      "hormone": 9139,
      "trains": 9140,
      "sunday": 9141,
      "drove": 9142,
      "industries": 9143,
      "activate": 9144,
      "thơm": 9145,
      "programming": 9146,
      "sentences": 9147,
      "fastest": 9148,
      "sexy": 9149,
      "compelling": 9150,
      "affects": 9151,
      "telephone": 9152,
      "1998": 9153,
      "secrets": 9154,
      "pushed": 9155,
      "titan": 9156,
      "scanner": 9157,
      "influenced": 9158,
      "integrated": 9159,
      "reduction": 9160,
      "inhe": 9161,
      "optimism": 9162,
      "bags": 9163,
      "category": 9164,
      "apollo": 9165,
      "habitat": 9166,
      "1970s": 9167,
      "qualities": 9168,
      "scores": 9169,
      "reflect": 9170,
      "atlanta": 9171,
      "frustrated": 9172,
      "dialogue": 9173,
      "magical": 9174,
      "chimpanze": 9175,
      "ownership": 9176,
      "attractive": 9177,
      "dedicated": 9178,
      "orchestra": 9179,
      "passenger": 9180,
      "hormones": 9181,
      "dignity": 9182,
      "benjamin": 9183,
      "domestic": 9184,
      "february": 9185,
      "41": 9186,
      "900": 9187,
      "aqu": 9188,
      "bis": 9189,
      "bber": 9190,
      "dun": 9191,
      "dơi": 9192,
      "hé": 9193,
      "jing": 9194,
      "lac": 9195,
      "pons": 9196,
      "rỗi": 9197,
      "smar": 9198,
      "vẫy": 9199,
      "wider": 9200,
      "ngừ": 9201,
      "chad": 9202,
      "recru": 9203,
      "request": 9204,
      "revenue": 9205,
      "trọn": 9206,
      "toys": 9207,
      "tide": 9208,
      "lion": 9209,
      "soviet": 9210,
      "acre": 9211,
      "accent": 9212,
      "forgotten": 9213,
      "dood": 9214,
      "output": 9215,
      "cusing": 9216,
      "emph": 9217,
      "ila": 9218,
      "cigaret": 9219,
      "coli": 9220,
      "igan": 9221,
      "kilo": 9222,
      "shy": 9223,
      "focusing": 9224,
      "gran": 9225,
      "spots": 9226,
      "vene": 9227,
      "tale": 9228,
      "hire": 9229,
      "destin": 9230,
      "mara": 9231,
      "steal": 9232,
      "pile": 9233,
      "smiling": 9234,
      "powerpoint": 9235,
      "guer": 9236,
      "muscle": 9237,
      "curric": 9238,
      "warren": 9239,
      "tesla": 9240,
      "responding": 9241,
      "physician": 9242,
      "biologists": 9243,
      "occup": 9244,
      "chances": 9245,
      "improving": 9246,
      "hamburger": 9247,
      "copes": 9248,
      "sharp": 9249,
      "eaten": 9250,
      "breakthrough": 9251,
      "defining": 9252,
      "silly": 9253,
      "campus": 9254,
      "philanthro": 9255,
      "photographed": 9256,
      "layers": 9257,
      "genetics": 9258,
      "genetically": 9259,
      "delivery": 9260,
      "ethical": 9261,
      "articles": 9262,
      "clinic": 9263,
      "packed": 9264,
      "dịu": 9265,
      "arrive": 9266,
      "suggested": 9267,
      "reducing": 9268,
      "gieo": 9269,
      "attitude": 9270,
      "egyp": 9271,
      "scoop": 9272,
      "colonies": 9273,
      "dirty": 9274,
      "privilege": 9275,
      "prosperity": 9276,
      "portrait": 9277,
      "bướm": 9278,
      "retirement": 9279,
      "colombia": 9280,
      "luckily": 9281,
      "currency": 9282,
      "lebanon": 9283,
      "refugees": 9284,
      "suspended": 9285,
      "parallel": 9286,
      "matrix": 9287,
      "nanopatch": 9288,
      "captcha": 9289,
      "inherent": 9290,
      "curriculum": 9291,
      "68": 9292,
      "biz": 9293,
      "dê": 9294,
      "dose": 9295,
      "hil": 9296,
      "ivan": 9297,
      "nl": 9298,
      "râu": 9299,
      "rèn": 9300,
      "sr": 9301,
      "sween": 9302,
      "túng": 9303,
      "tẩy": 9304,
      "uh": 9305,
      "vần": 9306,
      "vọt": 9307,
      "wan": 9308,
      "wings": 9309,
      "xơ": 9310,
      "recess": 9311,
      "rebuild": 9312,
      "inations": 9313,
      "initial": 9314,
      "apagos": 9315,
      "array": 9316,
      "taxi": 9317,
      "lihood": 9318,
      "ongoing": 9319,
      "ict": 9320,
      "loan": 9321,
      "formu": 9322,
      "confront": 9323,
      "robin": 9324,
      "pear": 9325,
      "tubes": 9326,
      "sach": 9327,
      "empire": 9328,
      "uncle": 9329,
      "max": 9330,
      "perceive": 9331,
      "shred": 9332,
      "pulling": 9333,
      "veness": 9334,
      "berlin": 9335,
      "impul": 9336,
      "backwards": 9337,
      "biosphere": 9338,
      "letes": 9339,
      "positions": 9340,
      "basket": 9341,
      "cycles": 9342,
      "viral": 9343,
      "geria": 9344,
      "mploy": 9345,
      "warning": 9346,
      "movember": 9347,
      "harbor": 9348,
      "italy": 9349,
      "bono": 9350,
      "lawyer": 9351,
      "universities": 9352,
      "grandparents": 9353,
      "johnson": 9354,
      "clients": 9355,
      "circul": 9356,
      "summar": 9357,
      "breaks": 9358,
      "experimental": 9359,
      "galapagos": 9360,
      "includes": 9361,
      "specialized": 9362,
      "smartphone": 9363,
      "russian": 9364,
      "psychologist": 9365,
      "targets": 9366,
      "ancestors": 9367,
      "microbes": 9368,
      "representation": 9369,
      "transparent": 9370,
      "soldier": 9371,
      "concern": 9372,
      "judgment": 9373,
      "glasses": 9374,
      "inspire": 9375,
      "infection": 9376,
      "association": 9377,
      "smooth": 9378,
      "democrat": 9379,
      "investors": 9380,
      "translated": 9381,
      "conservative": 9382,
      "additional": 9383,
      "jackson": 9384,
      "shooting": 9385,
      "restaurants": 9386,
      "neuroscient": 9387,
      "originally": 9388,
      "accepted": 9389,
      "dressed": 9390,
      "refugee": 9391,
      "expressions": 9392,
      "distinct": 9393,
      "hypothesis": 9394,
      "autonomous": 9395,
      "skep": 9396,
      "infinite": 9397,
      "categories": 9398,
      "choosing": 9399,
      "michigan": 9400,
      "keepers": 9401,
      "smarter": 9402,
      "formula": 9403,
      "160": 9404,
      "49": 9405,
      "banh": 9406,
      "boss": 9407,
      "bón": 9408,
      "dẹp": 9409,
      "fits": 9410,
      "hc": 9411,
      "hả": 9412,
      "hân": 9413,
      "hâm": 9414,
      "kur": 9415,
      "kansas": 9416,
      "nt": 9417,
      "pause": 9418,
      "sms": 9419,
      "tast": 9420,
      "uity": 9421,
      "zip": 9422,
      "đòn": 9423,
      "đục": 9424,
      "resolution": 9425,
      "trễ": 9426,
      "iso": 9427,
      "enables": 9428,
      "aspir": 9429,
      "tier": 9430,
      "tiles": 9431,
      "rachel": 9432,
      "loa": 9433,
      "suffe": 9434,
      "mobility": 9435,
      "motors": 9436,
      "ours": 9437,
      "jung": 9438,
      "ressing": 9439,
      "pháo": 9440,
      "chiêm": 9441,
      "fool": 9442,
      "poison": 9443,
      "disorders": 9444,
      "clusive": 9445,
      "biotech": 9446,
      "precious": 9447,
      "carl": 9448,
      "insane": 9449,
      "traits": 9450,
      "fabul": 9451,
      "fuels": 9452,
      "mature": 9453,
      "joel": 9454,
      "helpful": 9455,
      "voy": 9456,
      "musta": 9457,
      "headlines": 9458,
      "chell": 9459,
      "bloom": 9460,
      "nuts": 9461,
      "harness": 9462,
      "pretend": 9463,
      "tility": 9464,
      "60s": 9465,
      "confused": 9466,
      "ification": 9467,
      "grandchildren": 9468,
      "pursuit": 9469,
      "statistic": 9470,
      "breakfast": 9471,
      "attach": 9472,
      "promote": 9473,
      "panel": 9474,
      "peaceful": 9475,
      "sisters": 9476,
      "pointing": 9477,
      "circuits": 9478,
      "catastro": 9479,
      "immediate": 9480,
      "unemploy": 9481,
      "pleasant": 9482,
      "documents": 9483,
      "remained": 9484,
      "crop": 9485,
      "diagnosis": 9486,
      "analyze": 9487,
      "independence": 9488,
      "algorithm": 9489,
      "penguin": 9490,
      "reminded": 9491,
      "terrorism": 9492,
      "fisher": 9493,
      "lord": 9494,
      "miracle": 9495,
      "exhibit": 9496,
      "spanish": 9497,
      "items": 9498,
      "controversi": 9499,
      "december": 9500,
      "lakota": 9501,
      "beijing": 9502,
      "hemisphere": 9503,
      "miserable": 9504,
      "anesthe": 9505,
      "treasure": 9506,
      "recommend": 9507,
      "siberia": 9508,
      "bhutan": 9509,
      "sweeney": 9510,
      "52": 9511,
      "bộc": 9512,
      "bồn": 9513,
      "cồn": 9514,
      "distan": 9515,
      "drew": 9516,
      "fought": 9517,
      "hán": 9518,
      "nã": 9519,
      "pad": 9520,
      "sque": 9521,
      "tớ": 9522,
      "tissues": 9523,
      "utical": 9524,
      "vớ": 9525,
      "xay": 9526,
      "xảo": 9527,
      "ôtô": 9528,
      "úm": 9529,
      "đàng": 9530,
      "ấng": 9531,
      "ẹo": 9532,
      "ốp": 9533,
      "ngửi": 9534,
      "anno": 9535,
      "trace": 9536,
      "trừng": 9537,
      "toster": 9538,
      "tongue": 9539,
      "alled": 9540,
      "quận": 9541,
      "arizon": 9542,
      "phồng": 9543,
      "tians": 9544,
      "edition": 9545,
      "edges": 9546,
      "cóc": 9547,
      "wei": 9548,
      "heal": 9549,
      "healing": 9550,
      "merely": 9551,
      "buồng": 9552,
      "convert": 9553,
      "dozens": 9554,
      "abs": 9555,
      "nepal": 9556,
      "ambig": 9557,
      "gear": 9558,
      "diều": 9559,
      "diving": 9560,
      "sudan": 9561,
      "opposed": 9562,
      "mood": 9563,
      "emma": 9564,
      "emily": 9565,
      "proposed": 9566,
      "extension": 9567,
      "managers": 9568,
      "luxu": 9569,
      "ultras": 9570,
      "render": 9571,
      "chips": 9572,
      "spill": 9573,
      "donor": 9574,
      "calories": 9575,
      "aceutical": 9576,
      "sheets": 9577,
      "cla": 9578,
      "bern": 9579,
      "firing": 9580,
      "strand": 9581,
[...]
